unsigned char embed_model_int8_tflite[] = {
  0x1c, 0x00, 0x00, 0x00, 0x54, 0x46, 0x4c, 0x33, 0x14, 0x00, 0x20, 0x00,
  0x1c, 0x00, 0x18, 0x00, 0x14, 0x00, 0x10, 0x00, 0x0c, 0x00, 0x00, 0x00,
  0x08, 0x00, 0x04, 0x00, 0x14, 0x00, 0x00, 0x00, 0x1c, 0x00, 0x00, 0x00,
  0x8c, 0x00, 0x00, 0x00, 0x0c, 0x01, 0x00, 0x00, 0xd8, 0x0d, 0x00, 0x00,
  0xe8, 0x0d, 0x00, 0x00, 0x2c, 0x2c, 0x00, 0x00, 0x03, 0x00, 0x00, 0x00,
  0x01, 0x00, 0x00, 0x00, 0x04, 0x00, 0x00, 0x00, 0x7e, 0xf1, 0xff, 0xff,
  0x0c, 0x00, 0x00, 0x00, 0x1c, 0x00, 0x00, 0x00, 0x3c, 0x00, 0x00, 0x00,
  0x0f, 0x00, 0x00, 0x00, 0x73, 0x65, 0x72, 0x76, 0x69, 0x6e, 0x67, 0x5f,
  0x64, 0x65, 0x66, 0x61, 0x75, 0x6c, 0x74, 0x00, 0x01, 0x00, 0x00, 0x00,
  0x04, 0x00, 0x00, 0x00, 0x68, 0xff, 0xff, 0xff, 0x1f, 0x00, 0x00, 0x00,
  0x04, 0x00, 0x00, 0x00, 0x08, 0x00, 0x00, 0x00, 0x6f, 0x75, 0x74, 0x70,
  0x75, 0x74, 0x5f, 0x30, 0x00, 0x00, 0x00, 0x00, 0x01, 0x00, 0x00, 0x00,
  0x04, 0x00, 0x00, 0x00, 0x86, 0xf1, 0xff, 0xff, 0x04, 0x00, 0x00, 0x00,
  0x0c, 0x00, 0x00, 0x00, 0x6c, 0x6f, 0x67, 0x6d, 0x65, 0x6c, 0x5f, 0x69,
  0x6e, 0x70, 0x75, 0x74, 0x00, 0x00, 0x00, 0x00, 0x03, 0x00, 0x00, 0x00,
  0x5c, 0x00, 0x00, 0x00, 0x2c, 0x00, 0x00, 0x00, 0x04, 0x00, 0x00, 0x00,
  0xb8, 0xff, 0xff, 0xff, 0x23, 0x00, 0x00, 0x00, 0x04, 0x00, 0x00, 0x00,
  0x13, 0x00, 0x00, 0x00, 0x43, 0x4f, 0x4e, 0x56, 0x45, 0x52, 0x53, 0x49,
  0x4f, 0x4e, 0x5f, 0x4d, 0x45, 0x54, 0x41, 0x44, 0x41, 0x54, 0x41, 0x00,
  0xdc, 0xff, 0xff, 0xff, 0x22, 0x00, 0x00, 0x00, 0x04, 0x00, 0x00, 0x00,
  0x13, 0x00, 0x00, 0x00, 0x6d, 0x69, 0x6e, 0x5f, 0x72, 0x75, 0x6e, 0x74,
  0x69, 0x6d, 0x65, 0x5f, 0x76, 0x65, 0x72, 0x73, 0x69, 0x6f, 0x6e, 0x00,
  0x08, 0x00, 0x0c, 0x00, 0x08, 0x00, 0x04, 0x00, 0x08, 0x00, 0x00, 0x00,
  0x21, 0x00, 0x00, 0x00, 0x04, 0x00, 0x00, 0x00, 0x13, 0x00, 0x00, 0x00,
  0x6d, 0x69, 0x6e, 0x5f, 0x72, 0x75, 0x6e, 0x74, 0x69, 0x6d, 0x65, 0x5f,
  0x76, 0x65, 0x72, 0x73, 0x69, 0x6f, 0x6e, 0x00, 0x24, 0x00, 0x00, 0x00,
  0xc8, 0x0c, 0x00, 0x00, 0xc0, 0x0c, 0x00, 0x00, 0xac, 0x0c, 0x00, 0x00,
  0x98, 0x0c, 0x00, 0x00, 0x84, 0x0c, 0x00, 0x00, 0xf4, 0x0b, 0x00, 0x00,
  0xe4, 0x09, 0x00, 0x00, 0x94, 0x09, 0x00, 0x00, 0x84, 0x08, 0x00, 0x00,
  0x34, 0x08, 0x00, 0x00, 0x94, 0x07, 0x00, 0x00, 0x44, 0x07, 0x00, 0x00,
  0xb4, 0x02, 0x00, 0x00, 0x84, 0x02, 0x00, 0x00, 0x34, 0x02, 0x00, 0x00,
  0x04, 0x02, 0x00, 0x00, 0xac, 0x01, 0x00, 0x00, 0x7c, 0x01, 0x00, 0x00,
  0x24, 0x01, 0x00, 0x00, 0x1c, 0x01, 0x00, 0x00, 0x14, 0x01, 0x00, 0x00,
  0x0c, 0x01, 0x00, 0x00, 0x04, 0x01, 0x00, 0x00, 0xfc, 0x00, 0x00, 0x00,
  0xf4, 0x00, 0x00, 0x00, 0xec, 0x00, 0x00, 0x00, 0xe4, 0x00, 0x00, 0x00,
  0xdc, 0x00, 0x00, 0x00, 0xd4, 0x00, 0x00, 0x00, 0xcc, 0x00, 0x00, 0x00,
  0xc4, 0x00, 0x00, 0x00, 0xbc, 0x00, 0x00, 0x00, 0xb4, 0x00, 0x00, 0x00,
  0x94, 0x00, 0x00, 0x00, 0x74, 0x00, 0x00, 0x00, 0x04, 0x00, 0x00, 0x00,
  0xba, 0xf2, 0xff, 0xff, 0x04, 0x00, 0x00, 0x00, 0x60, 0x00, 0x00, 0x00,
  0x0c, 0x00, 0x00, 0x00, 0x08, 0x00, 0x0e, 0x00, 0x08, 0x00, 0x04, 0x00,
  0x08, 0x00, 0x00, 0x00, 0x10, 0x00, 0x00, 0x00, 0x28, 0x00, 0x00, 0x00,
  0x00, 0x00, 0x06, 0x00, 0x08, 0x00, 0x04, 0x00, 0x06, 0x00, 0x00, 0x00,
  0x04, 0x00, 0x00, 0x00, 0x01, 0x00, 0x00, 0x00, 0xeb, 0x03, 0x00, 0x00,
  0x0c, 0x00, 0x18, 0x00, 0x14, 0x00, 0x10, 0x00, 0x0c, 0x00, 0x04, 0x00,
  0x0c, 0x00, 0x00, 0x00, 0x3c, 0xb2, 0x65, 0x30, 0x44, 0xe5, 0x45, 0x21,
  0x02, 0x00, 0x00, 0x00, 0x02, 0x00, 0x00, 0x00, 0x04, 0x00, 0x00, 0x00,
  0x06, 0x00, 0x00, 0x00, 0x32, 0x2e, 0x31, 0x39, 0x2e, 0x30, 0x00, 0x00,
  0x26, 0xf3, 0xff, 0xff, 0x04, 0x00, 0x00, 0x00, 0x10, 0x00, 0x00, 0x00,
  0x00, 0x00, 0x00, 0x00, 0x00, 0x00, 0x00, 0x00, 0x00, 0x00, 0x00, 0x00,
  0x00, 0x00, 0x00, 0x00, 0x42, 0xf3, 0xff, 0xff, 0x04, 0x00, 0x00, 0x00,
  0x10, 0x00, 0x00, 0x00, 0x31, 0x2e, 0x31, 0x34, 0x2e, 0x30, 0x00, 0x00,
  0x00, 0x00, 0x00, 0x00, 0x00, 0x00, 0x00, 0x00, 0xe0, 0xd6, 0xff, 0xff,
  0xe4, 0xd6, 0xff, 0xff, 0xe8, 0xd6, 0xff, 0xff, 0xec, 0xd6, 0xff, 0xff,
  0xf0, 0xd6, 0xff, 0xff, 0xf4, 0xd6, 0xff, 0xff, 0xf8, 0xd6, 0xff, 0xff,
  0xfc, 0xd6, 0xff, 0xff, 0x00, 0xd7, 0xff, 0xff, 0x04, 0xd7, 0xff, 0xff,
  0x08, 0xd7, 0xff, 0xff, 0x0c, 0xd7, 0xff, 0xff, 0x10, 0xd7, 0xff, 0xff,
  0x14, 0xd7, 0xff, 0xff, 0x96, 0xf3, 0xff, 0xff, 0x04, 0x00, 0x00, 0x00,
  0x48, 0x00, 0x00, 0x00, 0x8e, 0xa1, 0xe4, 0xc0, 0x81, 0x4f, 0x59, 0x96,
  0x79, 0x54, 0x0b, 0x81, 0xd2, 0x7e, 0xda, 0xc8, 0x79, 0x8e, 0x7f, 0x5d,
  0xcc, 0x12, 0x0e, 0xb9, 0xa2, 0x76, 0xd2, 0x71, 0x26, 0x28, 0xba, 0x32,
  0x3e, 0x97, 0x7f, 0xe6, 0x7f, 0x15, 0x2c, 0xae, 0x1d, 0x96, 0xb8, 0x42,
  0x23, 0x60, 0xe0, 0x54, 0x73, 0x81, 0xe2, 0xef, 0xcc, 0x2f, 0x2a, 0x2d,
  0x81, 0xf6, 0xa3, 0x98, 0x45, 0x23, 0x01, 0x22, 0x3f, 0x28, 0x83, 0x2d,
  0x6c, 0x02, 0x6e, 0x7f, 0xea, 0xf3, 0xff, 0xff, 0x04, 0x00, 0x00, 0x00,
  0x20, 0x00, 0x00, 0x00, 0x8a, 0xff, 0xff, 0xff, 0xfc, 0xff, 0xff, 0xff,
  0x50, 0x00, 0x00, 0x00, 0x52, 0xff, 0xff, 0xff, 0x88, 0xff, 0xff, 0xff,
  0x1e, 0x00, 0x00, 0x00, 0x90, 0xff, 0xff, 0xff, 0x3c, 0x00, 0x00, 0x00,
  0x16, 0xf4, 0xff, 0xff, 0x04, 0x00, 0x00, 0x00, 0x48, 0x00, 0x00, 0x00,
  0x5f, 0x00, 0xca, 0xe6, 0x18, 0xab, 0x3c, 0x6b, 0xa6, 0xd5, 0x95, 0xec,
  0x7b, 0xbe, 0xab, 0x56, 0x71, 0x68, 0x54, 0xad, 0x50, 0x7f, 0x74, 0xd1,
  0x08, 0x34, 0xd7, 0x18, 0xe8, 0x15, 0xf4, 0xf8, 0xcd, 0x81, 0xb1, 0x42,
  0xa1, 0xc7, 0x81, 0xc2, 0x6e, 0xf8, 0xea, 0xce, 0xf4, 0xc4, 0x6e, 0x8e,
  0x59, 0xd4, 0x86, 0xc3, 0x7f, 0x7f, 0xd0, 0x62, 0x2f, 0xbd, 0x4c, 0x81,
  0xfd, 0xdc, 0xc4, 0x10, 0x81, 0xb1, 0x81, 0xf7, 0xd6, 0x6d, 0xd3, 0x81,
  0x6a, 0xf4, 0xff, 0xff, 0x04, 0x00, 0x00, 0x00, 0x20, 0x00, 0x00, 0x00,
  0x00, 0x00, 0x00, 0x00, 0x00, 0x00, 0x00, 0x00, 0x00, 0x00, 0x00, 0x00,
  0x00, 0x00, 0x00, 0x00, 0x00, 0x00, 0x00, 0x00, 0x00, 0x00, 0x00, 0x00,
  0x00, 0x00, 0x00, 0x00, 0x00, 0x00, 0x00, 0x00, 0x96, 0xf4, 0xff, 0xff,
  0x04, 0x00, 0x00, 0x00, 0x40, 0x00, 0x00, 0x00, 0x3c, 0xd0, 0x42, 0x28,
  0x52, 0xf7, 0x94, 0x81, 0x2c, 0x07, 0x3d, 0x31, 0x59, 0x9a, 0x25, 0x81,
  0x49, 0x1c, 0x28, 0x7f, 0x96, 0x09, 0x77, 0x40, 0x7f, 0x76, 0x54, 0xc7,
  0xa2, 0xc1, 0xd4, 0xf1, 0x81, 0x52, 0xf8, 0x49, 0x25, 0xef, 0x88, 0xa5,
  0xab, 0x16, 0x81, 0x4f, 0xa4, 0x0d, 0x26, 0x9e, 0xc2, 0x3a, 0x2c, 0x4e,
  0xc2, 0x81, 0x84, 0x15, 0x37, 0x7f, 0x3d, 0x49, 0x1a, 0x8d, 0xa4, 0x6f,
  0xe2, 0xf4, 0xff, 0xff, 0x04, 0x00, 0x00, 0x00, 0x20, 0x00, 0x00, 0x00,
  0xbc, 0xff, 0xff, 0xff, 0x11, 0x00, 0x00, 0x00, 0xed, 0xff, 0xff, 0xff,
  0x21, 0x00, 0x00, 0x00, 0x34, 0x00, 0x00, 0x00, 0x3a, 0x00, 0x00, 0x00,
  0xed, 0xff, 0xff, 0xff, 0xae, 0xff, 0xff, 0xff, 0x0e, 0xf5, 0xff, 0xff,
  0x04, 0x00, 0x00, 0x00, 0x80, 0x04, 0x00, 0x00, 0xaa, 0xc9, 0xbb, 0xb3,
  0x43, 0xa1, 0x3c, 0x2a, 0xc7, 0x5b, 0xd8, 0x33, 0x39, 0x60, 0xd5, 0x0c,
  0xa5, 0xef, 0x40, 0x08, 0xe8, 0x0a, 0x44, 0x83, 0xf9, 0x08, 0x47, 0x03,
  0x2a, 0xd7, 0x25, 0x43, 0xb7, 0x3c, 0x90, 0xff, 0xd3, 0x12, 0xe4, 0x30,
  0xa1, 0x61, 0x51, 0x03, 0x11, 0x29, 0xda, 0xdf, 0x3a, 0x69, 0x49, 0xe8,
  0x45, 0x47, 0x38, 0x45, 0xb7, 0xd7, 0x35, 0x65, 0x17, 0x59, 0xb5, 0xee,
  0x81, 0xbf, 0xf8, 0xf9, 0xea, 0xf9, 0xb5, 0x0b, 0x05, 0x2c, 0xb3, 0x24,
  0xd8, 0x58, 0x9d, 0xee, 0xde, 0x22, 0x18, 0xff, 0x23, 0xb2, 0xf6, 0x55,
  0xbc, 0xfa, 0xfb, 0x45, 0x59, 0xbc, 0xc1, 0xc6, 0xe9, 0x3e, 0xf4, 0xfa,
  0xea, 0x29, 0xe3, 0xdc, 0xe9, 0x04, 0x08, 0xb4, 0xcc, 0xb0, 0xe3, 0x5c,
  0xf7, 0xf9, 0xa8, 0xb6, 0x06, 0xd3, 0x36, 0x0f, 0x27, 0xd6, 0x4c, 0xf2,
  0x81, 0xaf, 0xff, 0xe4, 0xaa, 0x06, 0x13, 0xf5, 0x15, 0x4b, 0xfd, 0x19,
  0x4d, 0xb1, 0xc5, 0x31, 0x1e, 0xe1, 0x56, 0xe5, 0x27, 0xbb, 0xdc, 0x01,
  0xcb, 0x0f, 0x0e, 0xd5, 0x20, 0x34, 0xf6, 0x09, 0x17, 0xdc, 0xc8, 0x0c,
  0x3c, 0x18, 0xef, 0x53, 0x81, 0x00, 0xca, 0x3d, 0xde, 0x2b, 0xf6, 0xf4,
  0x2e, 0x12, 0xfd, 0xef, 0x15, 0x37, 0x30, 0xdd, 0xec, 0xad, 0xfc, 0x3f,
  0x4b, 0xb4, 0xe7, 0xd3, 0x0f, 0x01, 0x47, 0x18, 0xd7, 0xb8, 0xfb, 0xbd,
  0x26, 0xed, 0xd1, 0xcf, 0x2a, 0x4c, 0xcb, 0xc3, 0xd6, 0x2e, 0xd4, 0x4b,
  0x4c, 0x0b, 0xdd, 0xce, 0xd4, 0x67, 0xc1, 0xfd, 0xc4, 0x03, 0xf4, 0xd9,
  0x1e, 0x2d, 0x31, 0xe6, 0x0c, 0xb4, 0x29, 0xf4, 0x21, 0xed, 0xd2, 0xce,
  0x43, 0x2f, 0x0c, 0x14, 0x24, 0xfb, 0xd4, 0x26, 0x02, 0xf8, 0x08, 0xc3,
  0xc1, 0xf7, 0xd0, 0xa9, 0xc0, 0x81, 0xf2, 0xbc, 0xfd, 0x1d, 0xe4, 0x27,
  0xc6, 0x20, 0x1f, 0xe5, 0xfc, 0xf8, 0xf2, 0x0b, 0x1b, 0x14, 0x08, 0xe9,
  0xc3, 0xf9, 0xbb, 0x94, 0xd7, 0xdc, 0x2e, 0x1c, 0x2c, 0x3f, 0xd0, 0xce,
  0x31, 0xec, 0x21, 0x3b, 0x14, 0xfd, 0x02, 0xd3, 0x23, 0xf3, 0x08, 0xfd,
  0x07, 0x59, 0x54, 0xcb, 0x13, 0xb6, 0x57, 0x17, 0xc9, 0x4d, 0x7f, 0x31,
  0xa5, 0xfd, 0x4b, 0xee, 0x41, 0xbf, 0xfb, 0xfa, 0x13, 0xb0, 0xd1, 0xf6,
  0xd9, 0xbd, 0xcf, 0xde, 0x2d, 0x05, 0x57, 0x10, 0x22, 0x42, 0x07, 0xfd,
  0xf5, 0x90, 0x24, 0xb2, 0xa6, 0xd1, 0x25, 0x1a, 0x2c, 0xb1, 0xde, 0xac,
  0xea, 0x4c, 0xe1, 0x17, 0xb9, 0xe9, 0x11, 0xd2, 0x0c, 0x45, 0x51, 0x2b,
  0x4f, 0x19, 0xc9, 0xa9, 0xb1, 0xff, 0x24, 0x40, 0x0f, 0xd6, 0xc0, 0xb8,
  0xe8, 0x25, 0x06, 0xdf, 0xdb, 0x0f, 0x3b, 0xf3, 0xe9, 0x46, 0x26, 0xf6,
  0xf9, 0x0d, 0xe0, 0xfb, 0xff, 0x10, 0x07, 0xa2, 0xc2, 0x1f, 0xb3, 0x8e,
  0x5d, 0x78, 0x03, 0x4d, 0x60, 0x45, 0x88, 0xe7, 0x31, 0xbe, 0xcf, 0x0a,
  0x4b, 0xd8, 0xec, 0x3c, 0x43, 0x52, 0x3f, 0x81, 0xc2, 0x89, 0x42, 0xa2,
  0x33, 0xc3, 0xc6, 0xfd, 0x09, 0x48, 0xfa, 0x39, 0x31, 0x26, 0xd6, 0xa1,
  0xf9, 0xf2, 0xe6, 0x88, 0xce, 0x09, 0x00, 0x93, 0xa3, 0xc6, 0x56, 0x66,
  0x3f, 0xc6, 0xe3, 0xd3, 0x2c, 0xd2, 0x41, 0xd8, 0x2d, 0xf0, 0xc7, 0xa9,
  0x23, 0xd2, 0xef, 0x0d, 0xc4, 0x15, 0xd3, 0xed, 0x4c, 0xc3, 0xed, 0x0b,
  0xc8, 0xcb, 0xd0, 0x67, 0x46, 0xd3, 0xa9, 0x3d, 0xc0, 0x54, 0x37, 0xb1,
  0x6e, 0xae, 0xab, 0x40, 0xad, 0xe1, 0x53, 0x54, 0xa1, 0x50, 0xdd, 0x50,
  0xb2, 0x44, 0x55, 0x4a, 0x18, 0xce, 0xb1, 0x49, 0x7f, 0xa8, 0x59, 0xcb,
  0xb8, 0x87, 0x1c, 0x1e, 0x8b, 0xb0, 0xd3, 0x57, 0x33, 0x6b, 0x21, 0xf7,
  0x1c, 0x7f, 0x17, 0xe2, 0xfb, 0x2c, 0xf5, 0x44, 0x3a, 0xe9, 0x8f, 0xbc,
  0x08, 0x28, 0xdb, 0x51, 0xfb, 0xde, 0xd0, 0xd0, 0xea, 0x0f, 0xdd, 0x26,
  0x23, 0xcd, 0x22, 0x0e, 0x4f, 0xc1, 0x81, 0x3e, 0xca, 0x97, 0x08, 0xc0,
  0x13, 0xf9, 0x51, 0x19, 0x33, 0x39, 0x1e, 0xd7, 0x25, 0x27, 0x5c, 0x17,
  0xcc, 0x2a, 0xeb, 0xbc, 0xce, 0xde, 0xa6, 0x42, 0x15, 0xaf, 0x0a, 0xb2,
  0x1c, 0xe0, 0xf0, 0x1b, 0xb3, 0x14, 0x72, 0x1b, 0xdb, 0x40, 0xc0, 0x14,
  0xd1, 0xd5, 0x62, 0xcf, 0x23, 0xcd, 0xe9, 0x15, 0xad, 0xf6, 0xe7, 0x29,
  0xc9, 0x23, 0xe4, 0xd0, 0xd7, 0xca, 0x68, 0xe5, 0xe1, 0x0e, 0xff, 0x3a,
  0xc9, 0xbc, 0x2e, 0x31, 0x58, 0x5b, 0xd5, 0xe9, 0x0d, 0xf7, 0x5a, 0xfc,
  0xa8, 0xcf, 0x3b, 0xb6, 0xd5, 0x7f, 0xf0, 0xe8, 0xad, 0x51, 0x14, 0xd6,
  0xf0, 0x4b, 0x11, 0x52, 0x46, 0x4c, 0x99, 0x42, 0x59, 0xe5, 0x6a, 0x13,
  0x18, 0xd3, 0x44, 0xab, 0xf6, 0x00, 0x2d, 0x93, 0xd7, 0xcc, 0x06, 0xa4,
  0xc6, 0x26, 0xd7, 0x33, 0xfa, 0x0b, 0x81, 0xe8, 0xf6, 0x0d, 0xc8, 0x11,
  0x9d, 0xa1, 0xe4, 0x1e, 0xc6, 0x2a, 0xfa, 0x1c, 0x2e, 0xe4, 0x5a, 0xc2,
  0xd9, 0x1f, 0xd8, 0xfe, 0xf1, 0xdc, 0x02, 0xdd, 0x0d, 0x10, 0x24, 0xdc,
  0xc4, 0xe9, 0x23, 0xe7, 0x00, 0x0c, 0x18, 0xf2, 0xc3, 0xff, 0x64, 0x32,
  0x47, 0xdb, 0x0b, 0xd7, 0x25, 0x4e, 0xdb, 0xd1, 0x10, 0x1c, 0xd8, 0x02,
  0xe7, 0x19, 0xd4, 0xe2, 0xcb, 0xb5, 0xe3, 0xb8, 0xdc, 0xc5, 0xfc, 0x50,
  0xd6, 0xe1, 0x11, 0xa0, 0x0b, 0x16, 0x42, 0x8d, 0x0a, 0xc8, 0xa4, 0xa7,
  0x42, 0x09, 0xbf, 0x01, 0x52, 0xe9, 0xd2, 0x9b, 0xfa, 0xde, 0x59, 0x5f,
  0x3e, 0xf7, 0xf3, 0x51, 0xe8, 0x44, 0x25, 0x17, 0xf2, 0x97, 0xff, 0x42,
  0x5c, 0xff, 0x3d, 0x0d, 0xd9, 0xd3, 0x4a, 0x35, 0xf3, 0xaa, 0x38, 0xb1,
  0x87, 0xdf, 0xe8, 0xe2, 0xc0, 0x53, 0x9f, 0x42, 0xa3, 0xfa, 0x45, 0xe0,
  0x4d, 0x4c, 0x92, 0xb7, 0x11, 0x65, 0x81, 0x03, 0x97, 0xa2, 0x27, 0xed,
  0x7f, 0x17, 0x3c, 0x90, 0x4c, 0x44, 0x1a, 0x43, 0xf3, 0x32, 0x21, 0x5b,
  0xe7, 0x29, 0x1d, 0x43, 0xda, 0x13, 0x12, 0xf2, 0xa4, 0xd8, 0x08, 0xfe,
  0x63, 0x21, 0xfd, 0xde, 0xfe, 0x23, 0xe2, 0xb2, 0xd4, 0xc2, 0xff, 0xeb,
  0xf8, 0x14, 0xdd, 0xea, 0x1c, 0x1e, 0x10, 0x62, 0xf4, 0x14, 0x72, 0xd0,
  0xc8, 0x21, 0xbf, 0x42, 0x2f, 0x41, 0xc4, 0xdd, 0xfb, 0xbf, 0xdf, 0x2e,
  0x33, 0x72, 0xd7, 0x23, 0xb9, 0xb3, 0xb3, 0x51, 0x04, 0xd1, 0x57, 0xf3,
  0x4a, 0xf6, 0xca, 0x97, 0xfa, 0x81, 0xd1, 0x1c, 0xd9, 0xc5, 0xe6, 0x6f,
  0xcb, 0x59, 0xd0, 0x76, 0x5d, 0x47, 0xe6, 0xac, 0x66, 0xbc, 0xd5, 0x63,
  0xdf, 0x92, 0x99, 0x1d, 0xfe, 0x25, 0xf2, 0x46, 0x4d, 0xf0, 0x60, 0xc6,
  0x1e, 0x45, 0x47, 0xcb, 0xb7, 0x6a, 0xf4, 0xd5, 0x4a, 0x26, 0xe5, 0xdd,
  0xe0, 0x7c, 0xf0, 0xbc, 0xac, 0xf6, 0x0a, 0x58, 0x70, 0x17, 0x9d, 0xe7,
  0xf1, 0x39, 0xa9, 0x30, 0xf3, 0xdb, 0xb4, 0x07, 0xab, 0xc0, 0x8d, 0xf9,
  0x1a, 0x08, 0x36, 0xc9, 0x51, 0x93, 0xb1, 0xf0, 0x0f, 0xed, 0xf4, 0x4f,
  0x59, 0xd4, 0xde, 0x1e, 0x4d, 0x52, 0xfa, 0xea, 0x47, 0x62, 0x16, 0x14,
  0x0b, 0x00, 0x0b, 0x42, 0xd3, 0xa1, 0xdf, 0xe8, 0xc1, 0x12, 0x4c, 0x07,
  0xf5, 0xcd, 0xac, 0x14, 0xde, 0x3a, 0xec, 0x7f, 0x28, 0x50, 0x46, 0xe1,
  0x15, 0x86, 0x4d, 0xab, 0x31, 0x3d, 0x95, 0xdd, 0xc5, 0xe9, 0x0b, 0xe1,
  0x17, 0x06, 0x50, 0x2f, 0x2f, 0xea, 0x55, 0x2f, 0x7b, 0xc6, 0xd7, 0x5b,
  0xcc, 0x8d, 0x0a, 0x04, 0xee, 0xd5, 0xc3, 0x16, 0xa2, 0xc8, 0x54, 0xea,
  0xaa, 0x3b, 0x35, 0xfe, 0xf5, 0xbb, 0x8f, 0x91, 0x64, 0xbf, 0x4c, 0x42,
  0x36, 0xcb, 0x28, 0x38, 0xc0, 0x08, 0x96, 0xce, 0xed, 0xa9, 0xfd, 0x52,
  0x32, 0xe7, 0x47, 0xda, 0x03, 0xdf, 0xfa, 0xee, 0x66, 0xd5, 0xfd, 0x68,
  0x09, 0x20, 0xa0, 0xc9, 0xef, 0xef, 0x27, 0xca, 0xd7, 0x2d, 0x0f, 0x08,
  0xc4, 0xbc, 0xd5, 0x1e, 0xf5, 0xf1, 0x81, 0xbd, 0xfa, 0x4b, 0x30, 0x50,
  0xd5, 0x7f, 0xd6, 0xca, 0x99, 0xf4, 0x12, 0x05, 0xce, 0xd9, 0x52, 0x17,
  0x3c, 0x1d, 0x5d, 0xb3, 0x49, 0x41, 0xc6, 0x03, 0xea, 0x48, 0x45, 0x0d,
  0xc8, 0xd3, 0x19, 0x67, 0xb3, 0xed, 0x3d, 0x0a, 0x06, 0xb8, 0x3d, 0x24,
  0xe7, 0x35, 0xd2, 0xea, 0x25, 0xe3, 0xd7, 0x92, 0x63, 0xfa, 0x5b, 0x4f,
  0x16, 0xb1, 0x5b, 0x3c, 0xbb, 0x50, 0x9a, 0x08, 0xfc, 0x11, 0x18, 0xf5,
  0xea, 0xf8, 0xc6, 0x54, 0x97, 0x3a, 0xbc, 0x37, 0x9a, 0xf9, 0xff, 0xff,
  0x04, 0x00, 0x00, 0x00, 0x40, 0x00, 0x00, 0x00, 0xda, 0x00, 0x00, 0x00,
  0x78, 0xff, 0xff, 0xff, 0x36, 0xff, 0xff, 0xff, 0x44, 0x01, 0x00, 0x00,
  0x66, 0xfe, 0xff, 0xff, 0xc0, 0xff, 0xff, 0xff, 0xad, 0xff, 0xff, 0xff,
  0xd7, 0x01, 0x00, 0x00, 0xbf, 0xff, 0xff, 0xff, 0xf6, 0xfe, 0xff, 0xff,
  0x83, 0xff, 0xff, 0xff, 0x8b, 0x00, 0x00, 0x00, 0x16, 0x00, 0x00, 0x00,
  0x10, 0x00, 0x00, 0x00, 0x65, 0x00, 0x00, 0x00, 0x86, 0xff, 0xff, 0xff,
  0xe6, 0xf9, 0xff, 0xff, 0x04, 0x00, 0x00, 0x00, 0x90, 0x00, 0x00, 0x00,
  0xc3, 0xba, 0xbb, 0xa1, 0x62, 0x7f, 0xac, 0xd2, 0x62, 0x9c, 0xa8, 0xc8,
  0xf2, 0x81, 0xcf, 0x23, 0x4c, 0x30, 0x21, 0x49, 0xfc, 0xa4, 0x50, 0x9f,
  0xbf, 0x5d, 0xf8, 0x1e, 0xa6, 0x67, 0xb8, 0xef, 0xe6, 0xb9, 0xa9, 0x9b,
  0xb9, 0x82, 0x93, 0xcc, 0xae, 0x29, 0x14, 0x12, 0x81, 0xd8, 0x0b, 0x1c,
  0x81, 0x5c, 0xb3, 0xf1, 0xe3, 0x89, 0x52, 0x34, 0x1c, 0xed, 0x8e, 0x81,
  0x9b, 0xb6, 0x7f, 0x4f, 0x85, 0x37, 0x75, 0xfe, 0x81, 0x9c, 0x7f, 0xd3,
  0xdd, 0x66, 0xc6, 0x5c, 0xb2, 0x67, 0x53, 0x7f, 0x3e, 0x81, 0x7f, 0xf9,
  0xe4, 0xe0, 0xad, 0x25, 0x81, 0x2c, 0x0e, 0xc2, 0x0a, 0x64, 0xca, 0xa6,
  0x7d, 0x1e, 0xff, 0x81, 0x09, 0x3c, 0x68, 0x6a, 0x42, 0xc6, 0xbf, 0xf2,
  0x03, 0x35, 0x27, 0xe6, 0xe7, 0xaf, 0x33, 0xe6, 0x98, 0xf3, 0xd7, 0x81,
  0xaa, 0x3a, 0xa3, 0x8f, 0x38, 0xc9, 0x4d, 0x89, 0x79, 0x1e, 0x34, 0x06,
  0x38, 0x75, 0xf7, 0x4b, 0xd7, 0x7f, 0x7f, 0x6b, 0xc7, 0xcf, 0xa4, 0xbb,
  0x82, 0xfa, 0xff, 0xff, 0x04, 0x00, 0x00, 0x00, 0x40, 0x00, 0x00, 0x00,
  0x00, 0x00, 0x00, 0x00, 0x00, 0x00, 0x00, 0x00, 0x00, 0x00, 0x00, 0x00,
  0x00, 0x00, 0x00, 0x00, 0x00, 0x00, 0x00, 0x00, 0x00, 0x00, 0x00, 0x00,
  0x00, 0x00, 0x00, 0x00, 0x00, 0x00, 0x00, 0x00, 0x00, 0x00, 0x00, 0x00,
  0x00, 0x00, 0x00, 0x00, 0x00, 0x00, 0x00, 0x00, 0x00, 0x00, 0x00, 0x00,
  0x00, 0x00, 0x00, 0x00, 0x00, 0x00, 0x00, 0x00, 0x00, 0x00, 0x00, 0x00,
  0x00, 0x00, 0x00, 0x00, 0xce, 0xfa, 0xff, 0xff, 0x04, 0x00, 0x00, 0x00,
  0x00, 0x01, 0x00, 0x00, 0xcc, 0xbb, 0x40, 0x34, 0x5a, 0x9e, 0xd1, 0xc3,
  0x0c, 0x51, 0xaa, 0xc3, 0x3a, 0xf7, 0xe7, 0x7f, 0x87, 0xa7, 0x12, 0x2a,
  0x0d, 0xf9, 0x50, 0x1e, 0xee, 0x5f, 0x05, 0x7f, 0x17, 0xd6, 0x6b, 0x8f,
  0x5e, 0xb8, 0x7c, 0xf0, 0x12, 0x81, 0xc9, 0x7b, 0xb7, 0x92, 0x1f, 0x09,
  0x64, 0xb0, 0xe3, 0xb7, 0x17, 0x82, 0xc0, 0x1b, 0x6c, 0xef, 0x52, 0xd2,
  0xa4, 0x81, 0xee, 0x00, 0xf1, 0x08, 0x5e, 0xd5, 0xf2, 0xb4, 0xb8, 0x81,
  0x5b, 0x10, 0xc0, 0xfc, 0x28, 0x8a, 0xa6, 0xab, 0x0f, 0xb4, 0x52, 0x46,
  0x8d, 0x4d, 0x7d, 0xac, 0xc5, 0xd1, 0x21, 0xf5, 0x11, 0x7f, 0xd8, 0xec,
  0x7f, 0x8c, 0x95, 0xd4, 0xb8, 0xc9, 0x5f, 0x41, 0xd7, 0x25, 0x99, 0x4c,
  0x81, 0x8c, 0x7c, 0xde, 0x94, 0xe8, 0x06, 0xd3, 0xfb, 0x98, 0x00, 0x1e,
  0x74, 0xe5, 0x0a, 0x92, 0x6d, 0xda, 0xe1, 0x2c, 0xa8, 0xd2, 0x41, 0x81,
  0x81, 0x06, 0x1a, 0xb5, 0x96, 0x87, 0xad, 0xc3, 0xaf, 0x4e, 0xb6, 0x74,
  0x75, 0x5b, 0x47, 0x29, 0x04, 0x4a, 0x5b, 0xc8, 0x2a, 0xeb, 0xcb, 0x6a,
  0x6e, 0x7f, 0xc6, 0x28, 0xa9, 0x18, 0x2b, 0x57, 0x98, 0x17, 0xb2, 0x0c,
  0x7f, 0x09, 0x26, 0x18, 0x3d, 0xe9, 0xd4, 0x78, 0x9a, 0x1e, 0x64, 0x47,
  0xad, 0x3e, 0x48, 0xde, 0xd8, 0xca, 0x38, 0x40, 0x73, 0xc6, 0x4d, 0xa3,
  0x81, 0x22, 0xa4, 0xbd, 0xf4, 0x5c, 0x38, 0x81, 0x83, 0x2a, 0x0a, 0x6c,
  0xd4, 0x59, 0xe1, 0xc0, 0xf8, 0x0e, 0x4e, 0xdd, 0xbb, 0x90, 0xfb, 0xa7,
  0x43, 0x3c, 0xdd, 0x66, 0xc8, 0x33, 0x91, 0x9b, 0x7f, 0xa6, 0xf8, 0xbd,
  0x17, 0x2e, 0x11, 0xfc, 0x13, 0x7f, 0xc5, 0x02, 0xa8, 0x10, 0x43, 0x7c,
  0x32, 0x28, 0xc1, 0x85, 0x65, 0xf4, 0xd5, 0x81, 0xd1, 0x11, 0xe6, 0xfc,
  0xac, 0xb2, 0x39, 0x32, 0x44, 0xad, 0xec, 0x17, 0xda, 0xfb, 0xff, 0xff,
  0x04, 0x00, 0x00, 0x00, 0x40, 0x00, 0x00, 0x00, 0x26, 0xff, 0xff, 0xff,
  0xb0, 0xfe, 0xff, 0xff, 0x94, 0xfe, 0xff, 0xff, 0xe0, 0x00, 0x00, 0x00,
  0x21, 0x00, 0x00, 0x00, 0xac, 0xff, 0xff, 0xff, 0x06, 0x00, 0x00, 0x00,
  0x10, 0x01, 0x00, 0x00, 0x7e, 0xfe, 0xff, 0xff, 0x73, 0xff, 0xff, 0xff,
  0x05, 0xff, 0xff, 0xff, 0xc8, 0x00, 0x00, 0x00, 0x6b, 0xfe, 0xff, 0xff,
  0x4f, 0xfe, 0xff, 0xff, 0x92, 0xfe, 0xff, 0xff, 0x04, 0xfe, 0xff, 0xff,
  0x26, 0xfc, 0xff, 0xff, 0x04, 0x00, 0x00, 0x00, 0x00, 0x02, 0x00, 0x00,
  0x8f, 0x1c, 0x28, 0x74, 0x7f, 0xc8, 0xa3, 0x08, 0xc9, 0x27, 0x2f, 0xca,
  0x46, 0xc7, 0xda, 0x68, 0xad, 0x6f, 0x7f, 0x39, 0x63, 0xa7, 0xf9, 0xed,
  0xc3, 0x49, 0xb2, 0xfe, 0xcf, 0xda, 0xc9, 0x3b, 0x2d, 0xac, 0x7a, 0x93,
  0x81, 0xfd, 0xe7, 0x58, 0x4f, 0x4d, 0xb2, 0x5c, 0x91, 0xdc, 0x88, 0x57,
  0x21, 0x09, 0x5c, 0xb2, 0xa3, 0xa0, 0x66, 0xfc, 0x7f, 0x11, 0x96, 0x9d,
  0xdd, 0xfe, 0x2f, 0xf4, 0x2c, 0x47, 0x59, 0xaf, 0x92, 0xa8, 0x13, 0x1d,
  0x7f, 0x92, 0x6c, 0x1d, 0xfc, 0x52, 0xb2, 0x98, 0x71, 0xf7, 0xd1, 0xe5,
  0x55, 0xdc, 0xbc, 0x4a, 0x14, 0x77, 0xe5, 0xae, 0xc3, 0x3a, 0x26, 0x81,
  0xd7, 0x3e, 0xd3, 0x02, 0xa3, 0xa7, 0x65, 0x52, 0x38, 0x9f, 0x1a, 0xd2,
  0xce, 0x7f, 0x31, 0xdf, 0xe1, 0x1c, 0x9e, 0xf4, 0x63, 0xa3, 0xb8, 0xfe,
  0xb9, 0x7f, 0xfa, 0x7a, 0x1d, 0xac, 0x1a, 0x11, 0x0f, 0xfa, 0x94, 0x00,
  0x86, 0xb4, 0x0c, 0x5c, 0xac, 0xfa, 0x9d, 0x7f, 0xfa, 0x38, 0x25, 0xaf,
  0x65, 0x81, 0x3c, 0x70, 0x4d, 0xd6, 0x0c, 0xc5, 0x29, 0x03, 0xaf, 0xb0,
  0xb7, 0x3b, 0xf8, 0xf1, 0x9e, 0x50, 0xd6, 0x41, 0xd4, 0x96, 0x6e, 0xac,
  0xb9, 0x81, 0x71, 0xd7, 0x63, 0x5c, 0x73, 0x7f, 0xa1, 0xbe, 0xe3, 0x7f,
  0x1d, 0x4d, 0xd3, 0xf6, 0x9b, 0xfa, 0x85, 0x58, 0xe9, 0xc1, 0xe2, 0x46,
  0x2e, 0xf1, 0xe7, 0x72, 0x9f, 0x98, 0xc9, 0x49, 0x21, 0x7f, 0xb5, 0x15,
  0x84, 0x54, 0x48, 0x94, 0xfa, 0x4e, 0xee, 0x65, 0x8f, 0x98, 0x81, 0x7b,
  0x2f, 0xc4, 0x68, 0x34, 0x1e, 0xfb, 0xe6, 0xc0, 0x24, 0xd1, 0xa4, 0x8c,
  0xe7, 0x7e, 0x18, 0xd4, 0x93, 0xca, 0x1f, 0x57, 0x2f, 0x26, 0x7f, 0xbc,
  0xcb, 0xde, 0x7f, 0x4e, 0xe7, 0x99, 0xfb, 0x67, 0xaf, 0xab, 0x54, 0x06,
  0xd1, 0x21, 0x0b, 0x3c, 0x05, 0xf4, 0xab, 0x38, 0x93, 0x31, 0x8e, 0xf9,
  0x64, 0x67, 0x20, 0x7f, 0x0c, 0xd2, 0x82, 0x9c, 0x0b, 0x01, 0x3b, 0xa3,
  0x2c, 0x2f, 0x81, 0x28, 0x27, 0xee, 0x15, 0xd8, 0x5c, 0x4e, 0xd1, 0x45,
  0x1b, 0xb4, 0xd3, 0x4b, 0xd8, 0xbe, 0x81, 0x29, 0x36, 0xcc, 0xeb, 0x2a,
  0x12, 0x56, 0x77, 0xef, 0xc8, 0x4c, 0x01, 0xb4, 0x0f, 0x08, 0x81, 0x3c,
  0x39, 0xe2, 0x65, 0x32, 0x49, 0xa3, 0x21, 0x47, 0x24, 0x35, 0x59, 0x41,
  0x0d, 0x47, 0x95, 0x05, 0xaf, 0x7f, 0x01, 0xe1, 0x9f, 0x12, 0x30, 0xe7,
  0xb1, 0x58, 0x87, 0xfe, 0x3c, 0x9c, 0x63, 0x81, 0xf7, 0x34, 0xdc, 0xf5,
  0x50, 0x47, 0x50, 0x10, 0xe5, 0x96, 0xdc, 0x53, 0x1a, 0x40, 0xfb, 0x0e,
  0xb5, 0xed, 0x81, 0x2d, 0xf7, 0xac, 0x55, 0x17, 0xac, 0x7f, 0x1b, 0xae,
  0xdc, 0x3a, 0x05, 0x7a, 0x19, 0xa2, 0x43, 0xe7, 0x07, 0x06, 0x23, 0xad,
  0xdd, 0x79, 0x1e, 0x48, 0xb8, 0xbe, 0xb8, 0x7f, 0x00, 0x5f, 0x31, 0xdf,
  0xbb, 0xf6, 0x12, 0x98, 0x7f, 0xaa, 0xdb, 0x1e, 0x02, 0x68, 0xfd, 0x1d,
  0xc8, 0xb9, 0x48, 0xd0, 0xb8, 0x6b, 0x9c, 0x1a, 0xbe, 0x9b, 0x2d, 0x28,
  0x8d, 0x81, 0x4e, 0x3f, 0xca, 0x10, 0x3a, 0x39, 0xf2, 0x4d, 0xf8, 0xcd,
  0xde, 0x01, 0x36, 0x89, 0x7f, 0xa4, 0x52, 0x4b, 0xc4, 0x7d, 0x0b, 0xd0,
  0xe1, 0xdd, 0x37, 0x86, 0x1e, 0x64, 0xfb, 0x3a, 0xf7, 0x90, 0xbe, 0xd2,
  0x49, 0x98, 0x55, 0x1e, 0x7f, 0xa5, 0xa3, 0xaf, 0xed, 0x81, 0xd6, 0x84,
  0x11, 0x63, 0xb1, 0x4d, 0x4b, 0xed, 0x8e, 0x0f, 0x71, 0xc5, 0x65, 0xa9,
  0xf9, 0x96, 0xd1, 0x32, 0x9b, 0x23, 0xbc, 0xcd, 0xeb, 0x67, 0xc1, 0x2c,
  0x28, 0x2b, 0xd5, 0x7f, 0xb8, 0x05, 0xfc, 0x7f, 0xbd, 0xfa, 0x00, 0xfd,
  0x99, 0xfd, 0x01, 0x28, 0x3a, 0x15, 0xed, 0xb7, 0x32, 0xfe, 0xff, 0xff,
  0x04, 0x00, 0x00, 0x00, 0x80, 0x00, 0x00, 0x00, 0x3c, 0x01, 0x00, 0x00,
  0xb3, 0x00, 0x00, 0x00, 0x1e, 0x01, 0x00, 0x00, 0x0f, 0x05, 0x00, 0x00,
  0xc6, 0xf8, 0xff, 0xff, 0xa6, 0x03, 0x00, 0x00, 0x07, 0x03, 0x00, 0x00,
  0xe9, 0x04, 0x00, 0x00, 0x0a, 0x0b, 0x00, 0x00, 0x0b, 0xfb, 0xff, 0xff,
  0x92, 0xfd, 0xff, 0xff, 0x7b, 0x0a, 0x00, 0x00, 0xcc, 0x02, 0x00, 0x00,
  0xcb, 0x01, 0x00, 0x00, 0xfd, 0x02, 0x00, 0x00, 0x67, 0x03, 0x00, 0x00,
  0x24, 0xfb, 0xff, 0xff, 0x76, 0xf7, 0xff, 0xff, 0xcb, 0x01, 0x00, 0x00,
  0x3c, 0xff, 0xff, 0xff, 0x8f, 0xfe, 0xff, 0xff, 0xbd, 0xfb, 0xff, 0xff,
  0xd0, 0x05, 0x00, 0x00, 0xa4, 0x00, 0x00, 0x00, 0x4e, 0x06, 0x00, 0x00,
  0x3d, 0x00, 0x00, 0x00, 0xcb, 0x00, 0x00, 0x00, 0x50, 0x03, 0x00, 0x00,
  0x34, 0x01, 0x00, 0x00, 0xae, 0x03, 0x00, 0x00, 0x1b, 0x02, 0x00, 0x00,
  0xb5, 0xff, 0xff, 0xff, 0xbe, 0xfe, 0xff, 0xff, 0x04, 0x00, 0x00, 0x00,
  0x04, 0x00, 0x00, 0x00, 0x10, 0x00, 0x00, 0x00, 0xce, 0xfe, 0xff, 0xff,
  0x04, 0x00, 0x00, 0x00, 0x04, 0x00, 0x00, 0x00, 0x01, 0x00, 0x00, 0x00,
  0xde, 0xfe, 0xff, 0xff, 0x04, 0x00, 0x00, 0x00, 0x04, 0x00, 0x00, 0x00,
  0x00, 0x00, 0x00, 0x00, 0x70, 0xe2, 0xff, 0xff, 0x74, 0xe2, 0xff, 0xff,
  0x0f, 0x00, 0x00, 0x00, 0x4d, 0x4c, 0x49, 0x52, 0x20, 0x43, 0x6f, 0x6e,
  0x76, 0x65, 0x72, 0x74, 0x65, 0x64, 0x2e, 0x00, 0x01, 0x00, 0x00, 0x00,
  0x14, 0x00, 0x00, 0x00, 0x00, 0x00, 0x0e, 0x00, 0x18, 0x00, 0x14, 0x00,
  0x10, 0x00, 0x0c, 0x00, 0x08, 0x00, 0x04, 0x00, 0x0e, 0x00, 0x00, 0x00,
  0x14, 0x00, 0x00, 0x00, 0x1c, 0x00, 0x00, 0x00, 0x04, 0x04, 0x00, 0x00,
  0x08, 0x04, 0x00, 0x00, 0x0c, 0x04, 0x00, 0x00, 0x04, 0x00, 0x00, 0x00,
  0x6d, 0x61, 0x69, 0x6e, 0x00, 0x00, 0x00, 0x00, 0x0e, 0x00, 0x00, 0x00,
  0xa0, 0x03, 0x00, 0x00, 0x40, 0x03, 0x00, 0x00, 0xe0, 0x02, 0x00, 0x00,
  0x8c, 0x02, 0x00, 0x00, 0x4c, 0x02, 0x00, 0x00, 0x08, 0x02, 0x00, 0x00,
  0xc4, 0x01, 0x00, 0x00, 0x80, 0x01, 0x00, 0x00, 0x3c, 0x01, 0x00, 0x00,
  0x00, 0x01, 0x00, 0x00, 0xb0, 0x00, 0x00, 0x00, 0x70, 0x00, 0x00, 0x00,
  0x48, 0x00, 0x00, 0x00, 0x04, 0x00, 0x00, 0x00, 0x02, 0xfd, 0xff, 0xff,
  0x14, 0x00, 0x00, 0x00, 0x00, 0x00, 0x00, 0x08, 0x10, 0x00, 0x00, 0x00,
  0x14, 0x00, 0x00, 0x00, 0x08, 0x00, 0x00, 0x00, 0x1c, 0xe3, 0xff, 0xff,
  0x01, 0x00, 0x00, 0x00, 0x1f, 0x00, 0x00, 0x00, 0x03, 0x00, 0x00, 0x00,
  0x1e, 0x00, 0x00, 0x00, 0x05, 0x00, 0x00, 0x00, 0x04, 0x00, 0x00, 0x00,
  0x00, 0x00, 0x0a, 0x00, 0x10, 0x00, 0x0c, 0x00, 0x08, 0x00, 0x04, 0x00,
  0x0a, 0x00, 0x00, 0x00, 0x0c, 0x00, 0x00, 0x00, 0x10, 0x00, 0x00, 0x00,
  0x07, 0x00, 0x00, 0x00, 0x01, 0x00, 0x00, 0x00, 0x1e, 0x00, 0x00, 0x00,
  0x02, 0x00, 0x00, 0x00, 0x1a, 0x00, 0x00, 0x00, 0x1d, 0x00, 0x00, 0x00,
  0x66, 0xfd, 0xff, 0xff, 0x1c, 0x00, 0x00, 0x00, 0x00, 0x00, 0x00, 0x3b,
  0x1c, 0x00, 0x00, 0x00, 0x20, 0x00, 0x00, 0x00, 0x06, 0x00, 0x00, 0x00,
  0x00, 0x00, 0x06, 0x00, 0x08, 0x00, 0x04, 0x00, 0x06, 0x00, 0x00, 0x00,
  0x02, 0x00, 0x00, 0x00, 0x01, 0x00, 0x00, 0x00, 0x1d, 0x00, 0x00, 0x00,
  0x02, 0x00, 0x00, 0x00, 0x1c, 0x00, 0x00, 0x00, 0x03, 0x00, 0x00, 0x00,
  0xa2, 0xfd, 0xff, 0xff, 0x24, 0x00, 0x00, 0x00, 0x00, 0x00, 0x00, 0x20,
  0x24, 0x00, 0x00, 0x00, 0x28, 0x00, 0x00, 0x00, 0x05, 0x00, 0x00, 0x00,
  0x00, 0x00, 0x0e, 0x00, 0x08, 0x00, 0x00, 0x00, 0x00, 0x00, 0x00, 0x00,
  0x00, 0x00, 0x04, 0x00, 0x0e, 0x00, 0x00, 0x00, 0x01, 0x00, 0x00, 0x00,
  0x01, 0x00, 0x00, 0x00, 0x1c, 0x00, 0x00, 0x00, 0x04, 0x00, 0x00, 0x00,
  0x1b, 0x00, 0x00, 0x00, 0x01, 0x00, 0x00, 0x00, 0x02, 0x00, 0x00, 0x00,
  0x02, 0x00, 0x00, 0x00, 0xee, 0xfd, 0xff, 0xff, 0x1c, 0x00, 0x00, 0x00,
  0x00, 0x00, 0x00, 0x37, 0x1c, 0x00, 0x00, 0x00, 0x20, 0x00, 0x00, 0x00,
  0x04, 0x00, 0x00, 0x00, 0x00, 0x00, 0x06, 0x00, 0x08, 0x00, 0x07, 0x00,
  0x06, 0x00, 0x00, 0x00, 0x00, 0x00, 0x00, 0x02, 0x01, 0x00, 0x00, 0x00,
  0x1b, 0x00, 0x00, 0x00, 0x01, 0x00, 0x00, 0x00, 0x1a, 0x00, 0x00, 0x00,
  0x26, 0xfe, 0xff, 0xff, 0x14, 0x00, 0x00, 0x00, 0x00, 0x00, 0x00, 0x05,
  0x24, 0x00, 0x00, 0x00, 0x28, 0x00, 0x00, 0x00, 0x03, 0x00, 0x00, 0x00,
  0xc2, 0xfe, 0xff, 0xff, 0x04, 0x00, 0x00, 0x00, 0x0a, 0x00, 0x00, 0x00,
  0x04, 0x00, 0x00, 0x00, 0x0a, 0x00, 0x00, 0x00, 0x00, 0x00, 0x00, 0x01,
  0x01, 0x00, 0x00, 0x00, 0x1a, 0x00, 0x00, 0x00, 0x01, 0x00, 0x00, 0x00,
  0x19, 0x00, 0x00, 0x00, 0x66, 0xfe, 0xff, 0xff, 0x14, 0x00, 0x00, 0x00,
  0x00, 0x00, 0x00, 0x05, 0x24, 0x00, 0x00, 0x00, 0x28, 0x00, 0x00, 0x00,
  0x02, 0x00, 0x00, 0x00, 0x02, 0xff, 0xff, 0xff, 0x02, 0x00, 0x00, 0x00,
  0x02, 0x00, 0x00, 0x00, 0x02, 0x00, 0x00, 0x00, 0x02, 0x00, 0x00, 0x00,
  0x00, 0x00, 0x00, 0x01, 0x01, 0x00, 0x00, 0x00, 0x19, 0x00, 0x00, 0x00,
  0x01, 0x00, 0x00, 0x00, 0x18, 0x00, 0x00, 0x00, 0x4a, 0xfe, 0xff, 0xff,
  0x10, 0x00, 0x00, 0x00, 0x00, 0x00, 0x00, 0x01, 0x1c, 0x00, 0x00, 0x00,
  0x20, 0x00, 0x00, 0x00, 0xf4, 0xfe, 0xff, 0xff, 0x00, 0x00, 0x00, 0x01,
  0x01, 0x00, 0x00, 0x00, 0x01, 0x00, 0x00, 0x00, 0x00, 0x00, 0x00, 0x01,
  0x01, 0x00, 0x00, 0x00, 0x18, 0x00, 0x00, 0x00, 0x03, 0x00, 0x00, 0x00,
  0x17, 0x00, 0x00, 0x00, 0x07, 0x00, 0x00, 0x00, 0x06, 0x00, 0x00, 0x00,
  0xe6, 0xfe, 0xff, 0xff, 0x14, 0x00, 0x00, 0x00, 0x00, 0x00, 0x00, 0x02,
  0x1c, 0x00, 0x00, 0x00, 0x20, 0x00, 0x00, 0x00, 0x01, 0x00, 0x00, 0x00,
  0xd8, 0xfe, 0xff, 0xff, 0x01, 0x00, 0x00, 0x00, 0x01, 0x00, 0x00, 0x00,
  0x01, 0x00, 0x00, 0x00, 0x01, 0x00, 0x00, 0x00, 0x17, 0x00, 0x00, 0x00,
  0x03, 0x00, 0x00, 0x00, 0x16, 0x00, 0x00, 0x00, 0x09, 0x00, 0x00, 0x00,
  0x08, 0x00, 0x00, 0x00, 0xca, 0xfe, 0xff, 0xff, 0x10, 0x00, 0x00, 0x00,
  0x00, 0x00, 0x00, 0x01, 0x18, 0x00, 0x00, 0x00, 0x1c, 0x00, 0x00, 0x00,
  0xbc, 0xfe, 0xff, 0xff, 0x00, 0x00, 0x00, 0x01, 0x01, 0x00, 0x00, 0x00,
  0x01, 0x00, 0x00, 0x00, 0x01, 0x00, 0x00, 0x00, 0x16, 0x00, 0x00, 0x00,
  0x03, 0x00, 0x00, 0x00, 0x15, 0x00, 0x00, 0x00, 0x0b, 0x00, 0x00, 0x00,
  0x0a, 0x00, 0x00, 0x00, 0x62, 0xff, 0xff, 0xff, 0x24, 0x00, 0x00, 0x00,
  0x00, 0x00, 0x00, 0x05, 0x34, 0x00, 0x00, 0x00, 0x38, 0x00, 0x00, 0x00,
  0x02, 0x00, 0x00, 0x00, 0x00, 0x00, 0x0e, 0x00, 0x18, 0x00, 0x17, 0x00,
  0x10, 0x00, 0x0c, 0x00, 0x08, 0x00, 0x04, 0x00, 0x0e, 0x00, 0x00, 0x00,
  0x02, 0x00, 0x00, 0x00, 0x02, 0x00, 0x00, 0x00, 0x02, 0x00, 0x00, 0x00,
  0x02, 0x00, 0x00, 0x00, 0x00, 0x00, 0x00, 0x01, 0x01, 0x00, 0x00, 0x00,
  0x15, 0x00, 0x00, 0x00, 0x01, 0x00, 0x00, 0x00, 0x14, 0x00, 0x00, 0x00,
  0x56, 0xff, 0xff, 0xff, 0x1c, 0x00, 0x00, 0x00, 0x00, 0x00, 0x00, 0x01,
  0x28, 0x00, 0x00, 0x00, 0x2c, 0x00, 0x00, 0x00, 0x0c, 0x00, 0x14, 0x00,
  0x13, 0x00, 0x0c, 0x00, 0x08, 0x00, 0x07, 0x00, 0x0c, 0x00, 0x00, 0x00,
  0x00, 0x00, 0x00, 0x01, 0x01, 0x00, 0x00, 0x00, 0x01, 0x00, 0x00, 0x00,
  0x00, 0x00, 0x00, 0x01, 0x01, 0x00, 0x00, 0x00, 0x14, 0x00, 0x00, 0x00,
  0x03, 0x00, 0x00, 0x00, 0x13, 0x00, 0x00, 0x00, 0x0d, 0x00, 0x00, 0x00,
  0x0c, 0x00, 0x00, 0x00, 0x00, 0x00, 0x0e, 0x00, 0x18, 0x00, 0x14, 0x00,
  0x10, 0x00, 0x0c, 0x00, 0x0b, 0x00, 0x04, 0x00, 0x0e, 0x00, 0x00, 0x00,
  0x20, 0x00, 0x00, 0x00, 0x00, 0x00, 0x00, 0x02, 0x28, 0x00, 0x00, 0x00,
  0x2c, 0x00, 0x00, 0x00, 0x01, 0x00, 0x00, 0x00, 0x0c, 0x00, 0x10, 0x00,
  0x00, 0x00, 0x0c, 0x00, 0x08, 0x00, 0x04, 0x00, 0x0c, 0x00, 0x00, 0x00,
  0x01, 0x00, 0x00, 0x00, 0x01, 0x00, 0x00, 0x00, 0x01, 0x00, 0x00, 0x00,
  0x01, 0x00, 0x00, 0x00, 0x13, 0x00, 0x00, 0x00, 0x03, 0x00, 0x00, 0x00,
  0x12, 0x00, 0x00, 0x00, 0x0f, 0x00, 0x00, 0x00, 0x0e, 0x00, 0x00, 0x00,
  0x00, 0x00, 0x0e, 0x00, 0x14, 0x00, 0x00, 0x00, 0x10, 0x00, 0x0c, 0x00,
  0x0b, 0x00, 0x04, 0x00, 0x0e, 0x00, 0x00, 0x00, 0x1c, 0x00, 0x00, 0x00,
  0x00, 0x00, 0x00, 0x01, 0x24, 0x00, 0x00, 0x00, 0x28, 0x00, 0x00, 0x00,
  0x0c, 0x00, 0x10, 0x00, 0x00, 0x00, 0x0c, 0x00, 0x08, 0x00, 0x07, 0x00,
  0x0c, 0x00, 0x00, 0x00, 0x00, 0x00, 0x00, 0x01, 0x01, 0x00, 0x00, 0x00,
  0x01, 0x00, 0x00, 0x00, 0x01, 0x00, 0x00, 0x00, 0x12, 0x00, 0x00, 0x00,
  0x03, 0x00, 0x00, 0x00, 0x00, 0x00, 0x00, 0x00, 0x11, 0x00, 0x00, 0x00,
  0x10, 0x00, 0x00, 0x00, 0x01, 0x00, 0x00, 0x00, 0x1f, 0x00, 0x00, 0x00,
  0x01, 0x00, 0x00, 0x00, 0x00, 0x00, 0x00, 0x00, 0x20, 0x00, 0x00, 0x00,
  0x74, 0x19, 0x00, 0x00, 0x18, 0x19, 0x00, 0x00, 0xc0, 0x18, 0x00, 0x00,
  0x84, 0x18, 0x00, 0x00, 0xb0, 0x16, 0x00, 0x00, 0xd4, 0x14, 0x00, 0x00,
  0xc0, 0x13, 0x00, 0x00, 0x9c, 0x12, 0x00, 0x00, 0x88, 0x11, 0x00, 0x00,
  0x4c, 0x10, 0x00, 0x00, 0x38, 0x0f, 0x00, 0x00, 0x14, 0x0e, 0x00, 0x00,
  0x60, 0x0d, 0x00, 0x00, 0x9c, 0x0c, 0x00, 0x00, 0xe8, 0x0b, 0x00, 0x00,
  0x20, 0x0b, 0x00, 0x00, 0x68, 0x0a, 0x00, 0x00, 0xa4, 0x09, 0x00, 0x00,
  0xa8, 0x08, 0x00, 0x00, 0xf4, 0x07, 0x00, 0x00, 0xc8, 0x06, 0x00, 0x00,
  0x2c, 0x06, 0x00, 0x00, 0x30, 0x05, 0x00, 0x00, 0x7c, 0x04, 0x00, 0x00,
  0x50, 0x03, 0x00, 0x00, 0xb4, 0x02, 0x00, 0x00, 0x10, 0x02, 0x00, 0x00,
  0xbc, 0x01, 0x00, 0x00, 0x64, 0x01, 0x00, 0x00, 0x08, 0x01, 0x00, 0x00,
  0x80, 0x00, 0x00, 0x00, 0x04, 0x00, 0x00, 0x00, 0x22, 0xe7, 0xff, 0xff,
  0x00, 0x00, 0x00, 0x01, 0x18, 0x00, 0x00, 0x00, 0x20, 0x00, 0x00, 0x00,
  0x3c, 0x00, 0x00, 0x00, 0x20, 0x00, 0x00, 0x00, 0x00, 0x00, 0x00, 0x09,
  0x50, 0x00, 0x00, 0x00, 0x02, 0x00, 0x00, 0x00, 0xff, 0xff, 0xff, 0xff,
  0x20, 0x00, 0x00, 0x00, 0x04, 0xe7, 0xff, 0xff, 0x08, 0x00, 0x00, 0x00,
  0x10, 0x00, 0x00, 0x00, 0x01, 0x00, 0x00, 0x00, 0xdf, 0xff, 0xff, 0xff,
  0xff, 0xff, 0xff, 0xff, 0x01, 0x00, 0x00, 0x00, 0x92, 0x7f, 0x2c, 0x3a,
  0x1b, 0x00, 0x00, 0x00, 0x53, 0x74, 0x61, 0x74, 0x65, 0x66, 0x75, 0x6c,
  0x50, 0x61, 0x72, 0x74, 0x69, 0x74, 0x69, 0x6f, 0x6e, 0x65, 0x64, 0x43,
  0x61, 0x6c, 0x6c, 0x5f, 0x31, 0x3a, 0x30, 0x00, 0x02, 0x00, 0x00, 0x00,
  0x01, 0x00, 0x00, 0x00, 0x20, 0x00, 0x00, 0x00, 0x9a, 0xe7, 0xff, 0xff,
  0x00, 0x00, 0x00, 0x01, 0x18, 0x00, 0x00, 0x00, 0x20, 0x00, 0x00, 0x00,
  0x40, 0x00, 0x00, 0x00, 0x1f, 0x00, 0x00, 0x00, 0x00, 0x00, 0x00, 0x09,
  0x5c, 0x00, 0x00, 0x00, 0x02, 0x00, 0x00, 0x00, 0xff, 0xff, 0xff, 0xff,
  0x10, 0x00, 0x00, 0x00, 0x7c, 0xe7, 0xff, 0xff, 0x08, 0x00, 0x00, 0x00,
  0x14, 0x00, 0x00, 0x00, 0x01, 0x00, 0x00, 0x00, 0x80, 0xff, 0xff, 0xff,
  0xff, 0xff, 0xff, 0xff, 0x00, 0x00, 0x00, 0x00, 0x01, 0x00, 0x00, 0x00,
  0x92, 0xdd, 0xac, 0x3b, 0x22, 0x00, 0x00, 0x00, 0x62, 0x61, 0x63, 0x6b,
  0x62, 0x6f, 0x6e, 0x65, 0x5f, 0x72, 0x61, 0x77, 0x5f, 0x31, 0x2f, 0x72,
  0x65, 0x73, 0x68, 0x61, 0x70, 0x65, 0x5f, 0x31, 0x5f, 0x31, 0x2f, 0x52,
  0x65, 0x73, 0x68, 0x61, 0x70, 0x65, 0x00, 0x00, 0x02, 0x00, 0x00, 0x00,
  0x01, 0x00, 0x00, 0x00, 0x10, 0x00, 0x00, 0x00, 0x76, 0xe8, 0xff, 0xff,
  0x00, 0x00, 0x00, 0x01, 0x14, 0x00, 0x00, 0x00, 0x14, 0x00, 0x00, 0x00,
  0x1e, 0x00, 0x00, 0x00, 0x00, 0x00, 0x00, 0x02, 0x38, 0x00, 0x00, 0x00,
  0x60, 0xe8, 0xff, 0xff, 0x28, 0x00, 0x00, 0x00, 0x62, 0x61, 0x63, 0x6b,
  0x62, 0x6f, 0x6e, 0x65, 0x5f, 0x72, 0x61, 0x77, 0x5f, 0x31, 0x2f, 0x72,
  0x65, 0x73, 0x68, 0x61, 0x70, 0x65, 0x5f, 0x31, 0x5f, 0x31, 0x2f, 0x52,
  0x65, 0x73, 0x68, 0x61, 0x70, 0x65, 0x2f, 0x73, 0x68, 0x61, 0x70, 0x65,
  0x00, 0x00, 0x00, 0x00, 0x01, 0x00, 0x00, 0x00, 0x02, 0x00, 0x00, 0x00,
  0xce, 0xe8, 0xff, 0xff, 0x00, 0x00, 0x00, 0x01, 0x14, 0x00, 0x00, 0x00,
  0x14, 0x00, 0x00, 0x00, 0x1d, 0x00, 0x00, 0x00, 0x00, 0x00, 0x00, 0x02,
  0x38, 0x00, 0x00, 0x00, 0xb8, 0xe8, 0xff, 0xff, 0x28, 0x00, 0x00, 0x00,
  0x62, 0x61, 0x63, 0x6b, 0x62, 0x6f, 0x6e, 0x65, 0x5f, 0x72, 0x61, 0x77,
  0x5f, 0x31, 0x2f, 0x72, 0x65, 0x73, 0x68, 0x61, 0x70, 0x65, 0x5f, 0x31,
  0x5f, 0x31, 0x2f, 0x73, 0x74, 0x72, 0x69, 0x64, 0x65, 0x64, 0x5f, 0x73,
  0x6c, 0x69, 0x63, 0x65, 0x00, 0x00, 0x00, 0x00, 0x00, 0x00, 0x00, 0x00,
  0x22, 0xe9, 0xff, 0xff, 0x00, 0x00, 0x00, 0x01, 0x14, 0x00, 0x00, 0x00,
  0x14, 0x00, 0x00, 0x00, 0x1c, 0x00, 0x00, 0x00, 0x00, 0x00, 0x00, 0x02,
  0x30, 0x00, 0x00, 0x00, 0x0c, 0xe9, 0xff, 0xff, 0x20, 0x00, 0x00, 0x00,
  0x62, 0x61, 0x63, 0x6b, 0x62, 0x6f, 0x6e, 0x65, 0x5f, 0x72, 0x61, 0x77,
  0x5f, 0x31, 0x2f, 0x72, 0x65, 0x73, 0x68, 0x61, 0x70, 0x65, 0x5f, 0x31,
  0x5f, 0x31, 0x2f, 0x53, 0x68, 0x61, 0x70, 0x65, 0x00, 0x00, 0x00, 0x00,
  0x01, 0x00, 0x00, 0x00, 0x04, 0x00, 0x00, 0x00, 0x1a, 0xe9, 0xff, 0xff,
  0x00, 0x00, 0x00, 0x01, 0x18, 0x00, 0x00, 0x00, 0x28, 0x00, 0x00, 0x00,
  0x48, 0x00, 0x00, 0x00, 0x1b, 0x00, 0x00, 0x00, 0x00, 0x00, 0x00, 0x09,
  0x70, 0x00, 0x00, 0x00, 0x04, 0x00, 0x00, 0x00, 0xff, 0xff, 0xff, 0xff,
  0x01, 0x00, 0x00, 0x00, 0x01, 0x00, 0x00, 0x00, 0x10, 0x00, 0x00, 0x00,
  0x04, 0xe9, 0xff, 0xff, 0x08, 0x00, 0x00, 0x00, 0x14, 0x00, 0x00, 0x00,
  0x01, 0x00, 0x00, 0x00, 0x80, 0xff, 0xff, 0xff, 0xff, 0xff, 0xff, 0xff,
  0x00, 0x00, 0x00, 0x00, 0x01, 0x00, 0x00, 0x00, 0x92, 0xdd, 0xac, 0x3b,
  0x2c, 0x00, 0x00, 0x00, 0x62, 0x61, 0x63, 0x6b, 0x62, 0x6f, 0x6e, 0x65,
  0x5f, 0x72, 0x61, 0x77, 0x5f, 0x31, 0x2f, 0x61, 0x76, 0x65, 0x72, 0x61,
  0x67, 0x65, 0x5f, 0x70, 0x6f, 0x6f, 0x6c, 0x69, 0x6e, 0x67, 0x32, 0x64,
  0x5f, 0x31, 0x5f, 0x31, 0x2f, 0x41, 0x76, 0x67, 0x50, 0x6f, 0x6f, 0x6c,
  0x00, 0x00, 0x00, 0x00, 0x04, 0x00, 0x00, 0x00, 0x01, 0x00, 0x00, 0x00,
  0x01, 0x00, 0x00, 0x00, 0x01, 0x00, 0x00, 0x00, 0x10, 0x00, 0x00, 0x00,
  0xba, 0xe9, 0xff, 0xff, 0x00, 0x00, 0x00, 0x01, 0x18, 0x00, 0x00, 0x00,
  0x28, 0x00, 0x00, 0x00, 0x44, 0x00, 0x00, 0x00, 0x1a, 0x00, 0x00, 0x00,
  0x00, 0x00, 0x00, 0x09, 0x68, 0x00, 0x00, 0x00, 0x04, 0x00, 0x00, 0x00,
  0xff, 0xff, 0xff, 0xff, 0x04, 0x00, 0x00, 0x00, 0x0a, 0x00, 0x00, 0x00,
  0x10, 0x00, 0x00, 0x00, 0xa4, 0xe9, 0xff, 0xff, 0x08, 0x00, 0x00, 0x00,
  0x10, 0x00, 0x00, 0x00, 0x01, 0x00, 0x00, 0x00, 0x80, 0xff, 0xff, 0xff,
  0xff, 0xff, 0xff, 0xff, 0x01, 0x00, 0x00, 0x00, 0x92, 0xdd, 0xac, 0x3b,
  0x2a, 0x00, 0x00, 0x00, 0x62, 0x61, 0x63, 0x6b, 0x62, 0x6f, 0x6e, 0x65,
  0x5f, 0x72, 0x61, 0x77, 0x5f, 0x31, 0x2f, 0x6d, 0x61, 0x78, 0x5f, 0x70,
  0x6f, 0x6f, 0x6c, 0x69, 0x6e, 0x67, 0x32, 0x64, 0x5f, 0x33, 0x5f, 0x31,
  0x2f, 0x4d, 0x61, 0x78, 0x50, 0x6f, 0x6f, 0x6c, 0x32, 0x64, 0x00, 0x00,
  0x04, 0x00, 0x00, 0x00, 0x01, 0x00, 0x00, 0x00, 0x04, 0x00, 0x00, 0x00,
  0x0a, 0x00, 0x00, 0x00, 0x10, 0x00, 0x00, 0x00, 0x52, 0xea, 0xff, 0xff,
  0x00, 0x00, 0x00, 0x01, 0x18, 0x00, 0x00, 0x00, 0x28, 0x00, 0x00, 0x00,
  0x48, 0x00, 0x00, 0x00, 0x19, 0x00, 0x00, 0x00, 0x00, 0x00, 0x00, 0x09,
  0xf8, 0x00, 0x00, 0x00, 0x04, 0x00, 0x00, 0x00, 0xff, 0xff, 0xff, 0xff,
  0x09, 0x00, 0x00, 0x00, 0x14, 0x00, 0x00, 0x00, 0x10, 0x00, 0x00, 0x00,
  0x3c, 0xea, 0xff, 0xff, 0x08, 0x00, 0x00, 0x00, 0x14, 0x00, 0x00, 0x00,
  0x01, 0x00, 0x00, 0x00, 0x80, 0xff, 0xff, 0xff, 0xff, 0xff, 0xff, 0xff,
  0x00, 0x00, 0x00, 0x00, 0x01, 0x00, 0x00, 0x00, 0x92, 0xdd, 0xac, 0x3b,
  0xb5, 0x00, 0x00, 0x00, 0x62, 0x61, 0x63, 0x6b, 0x62, 0x6f, 0x6e, 0x65,
  0x5f, 0x72, 0x61, 0x77, 0x5f, 0x31, 0x2f, 0x73, 0x65, 0x70, 0x61, 0x72,
  0x61, 0x62, 0x6c, 0x65, 0x5f, 0x63, 0x6f, 0x6e, 0x76, 0x32, 0x64, 0x5f,
  0x33, 0x5f, 0x31, 0x2f, 0x52, 0x65, 0x6c, 0x75, 0x3b, 0x62, 0x61, 0x63,
  0x6b, 0x62, 0x6f, 0x6e, 0x65, 0x5f, 0x72, 0x61, 0x77, 0x5f, 0x31, 0x2f,
  0x73, 0x65, 0x70, 0x61, 0x72, 0x61, 0x62, 0x6c, 0x65, 0x5f, 0x63, 0x6f,
  0x6e, 0x76, 0x32, 0x64, 0x5f, 0x33, 0x5f, 0x31, 0x2f, 0x42, 0x69, 0x61,
  0x73, 0x41, 0x64, 0x64, 0x3b, 0x62, 0x61, 0x63, 0x6b, 0x62, 0x6f, 0x6e,
  0x65, 0x5f, 0x72, 0x61, 0x77, 0x5f, 0x31, 0x2f, 0x73, 0x65, 0x70, 0x61,
  0x72, 0x61, 0x62, 0x6c, 0x65, 0x5f, 0x63, 0x6f, 0x6e, 0x76, 0x32, 0x64,
  0x5f, 0x33, 0x5f, 0x31, 0x2f, 0x73, 0x65, 0x70, 0x61, 0x72, 0x61, 0x62,
  0x6c, 0x65, 0x5f, 0x63, 0x6f, 0x6e, 0x76, 0x32, 0x64, 0x3b, 0x62, 0x61,
  0x63, 0x6b, 0x62, 0x6f, 0x6e, 0x65, 0x5f, 0x72, 0x61, 0x77, 0x5f, 0x31,
  0x2f, 0x73, 0x65, 0x70, 0x61, 0x72, 0x61, 0x62, 0x6c, 0x65, 0x5f, 0x63,
  0x6f, 0x6e, 0x76, 0x32, 0x64, 0x5f, 0x33, 0x5f, 0x31, 0x2f, 0x53, 0x71,
  0x75, 0x65, 0x65, 0x7a, 0x65, 0x00, 0x00, 0x00, 0x04, 0x00, 0x00, 0x00,
  0x01, 0x00, 0x00, 0x00, 0x09, 0x00, 0x00, 0x00, 0x14, 0x00, 0x00, 0x00,
  0x10, 0x00, 0x00, 0x00, 0x7a, 0xeb, 0xff, 0xff, 0x00, 0x00, 0x00, 0x01,
  0x18, 0x00, 0x00, 0x00, 0x28, 0x00, 0x00, 0x00, 0x48, 0x00, 0x00, 0x00,
  0x18, 0x00, 0x00, 0x00, 0x00, 0x00, 0x00, 0x09, 0x80, 0x00, 0x00, 0x00,
  0x04, 0x00, 0x00, 0x00, 0xff, 0xff, 0xff, 0xff, 0x09, 0x00, 0x00, 0x00,
  0x14, 0x00, 0x00, 0x00, 0x10, 0x00, 0x00, 0x00, 0x64, 0xeb, 0xff, 0xff,
  0x08, 0x00, 0x00, 0x00, 0x14, 0x00, 0x00, 0x00, 0x01, 0x00, 0x00, 0x00,
  0x15, 0x00, 0x00, 0x00, 0x00, 0x00, 0x00, 0x00, 0x00, 0x00, 0x00, 0x00,
  0x01, 0x00, 0x00, 0x00, 0x1a, 0x84, 0x81, 0x3c, 0x3e, 0x00, 0x00, 0x00,
  0x62, 0x61, 0x63, 0x6b, 0x62, 0x6f, 0x6e, 0x65, 0x5f, 0x72, 0x61, 0x77,
  0x5f, 0x31, 0x2f, 0x73, 0x65, 0x70, 0x61, 0x72, 0x61, 0x62, 0x6c, 0x65,
  0x5f, 0x63, 0x6f, 0x6e, 0x76, 0x32, 0x64, 0x5f, 0x33, 0x5f, 0x31, 0x2f,
  0x73, 0x65, 0x70, 0x61, 0x72, 0x61, 0x62, 0x6c, 0x65, 0x5f, 0x63, 0x6f,
  0x6e, 0x76, 0x32, 0x64, 0x2f, 0x64, 0x65, 0x70, 0x74, 0x68, 0x77, 0x69,
  0x73, 0x65, 0x00, 0x00, 0x04, 0x00, 0x00, 0x00, 0x01, 0x00, 0x00, 0x00,
  0x09, 0x00, 0x00, 0x00, 0x14, 0x00, 0x00, 0x00, 0x10, 0x00, 0x00, 0x00,
  0x2a, 0xec, 0xff, 0xff, 0x00, 0x00, 0x00, 0x01, 0x18, 0x00, 0x00, 0x00,
  0x28, 0x00, 0x00, 0x00, 0x44, 0x00, 0x00, 0x00, 0x17, 0x00, 0x00, 0x00,
  0x00, 0x00, 0x00, 0x09, 0xc8, 0x00, 0x00, 0x00, 0x04, 0x00, 0x00, 0x00,
  0xff, 0xff, 0xff, 0xff, 0x09, 0x00, 0x00, 0x00, 0x14, 0x00, 0x00, 0x00,
  0x10, 0x00, 0x00, 0x00, 0x14, 0xec, 0xff, 0xff, 0x08, 0x00, 0x00, 0x00,
  0x10, 0x00, 0x00, 0x00, 0x01, 0x00, 0x00, 0x00, 0x80, 0xff, 0xff, 0xff,
  0xff, 0xff, 0xff, 0xff, 0x01, 0x00, 0x00, 0x00, 0x5e, 0x47, 0xea, 0x3c,
  0x88, 0x00, 0x00, 0x00, 0x62, 0x61, 0x63, 0x6b, 0x62, 0x6f, 0x6e, 0x65,
  0x5f, 0x72, 0x61, 0x77, 0x5f, 0x31, 0x2f, 0x63, 0x6f, 0x6e, 0x76, 0x32,
  0x64, 0x5f, 0x33, 0x5f, 0x31, 0x2f, 0x52, 0x65, 0x6c, 0x75, 0x3b, 0x62,
  0x61, 0x63, 0x6b, 0x62, 0x6f, 0x6e, 0x65, 0x5f, 0x72, 0x61, 0x77, 0x5f,
  0x31, 0x2f, 0x63, 0x6f, 0x6e, 0x76, 0x32, 0x64, 0x5f, 0x33, 0x5f, 0x31,
  0x2f, 0x42, 0x69, 0x61, 0x73, 0x41, 0x64, 0x64, 0x3b, 0x62, 0x61, 0x63,
  0x6b, 0x62, 0x6f, 0x6e, 0x65, 0x5f, 0x72, 0x61, 0x77, 0x5f, 0x31, 0x2f,
  0x63, 0x6f, 0x6e, 0x76, 0x32, 0x64, 0x5f, 0x33, 0x5f, 0x31, 0x2f, 0x63,
  0x6f, 0x6e, 0x76, 0x6f, 0x6c, 0x75, 0x74, 0x69, 0x6f, 0x6e, 0x3b, 0x62,
  0x61, 0x63, 0x6b, 0x62, 0x6f, 0x6e, 0x65, 0x5f, 0x72, 0x61, 0x77, 0x5f,
  0x31, 0x2f, 0x63, 0x6f, 0x6e, 0x76, 0x32, 0x64, 0x5f, 0x33, 0x5f, 0x31,
  0x2f, 0x53, 0x71, 0x75, 0x65, 0x65, 0x7a, 0x65, 0x00, 0x00, 0x00, 0x00,
  0x04, 0x00, 0x00, 0x00, 0x01, 0x00, 0x00, 0x00, 0x09, 0x00, 0x00, 0x00,
  0x14, 0x00, 0x00, 0x00, 0x10, 0x00, 0x00, 0x00, 0x22, 0xed, 0xff, 0xff,
  0x00, 0x00, 0x00, 0x01, 0x18, 0x00, 0x00, 0x00, 0x28, 0x00, 0x00, 0x00,
  0x44, 0x00, 0x00, 0x00, 0x16, 0x00, 0x00, 0x00, 0x00, 0x00, 0x00, 0x09,
  0x68, 0x00, 0x00, 0x00, 0x04, 0x00, 0x00, 0x00, 0xff, 0xff, 0xff, 0xff,
  0x09, 0x00, 0x00, 0x00, 0x14, 0x00, 0x00, 0x00, 0x08, 0x00, 0x00, 0x00,
  0x0c, 0xed, 0xff, 0xff, 0x08, 0x00, 0x00, 0x00, 0x10, 0x00, 0x00, 0x00,
  0x01, 0x00, 0x00, 0x00, 0x80, 0xff, 0xff, 0xff, 0xff, 0xff, 0xff, 0xff,
  0x01, 0x00, 0x00, 0x00, 0x6b, 0x9f, 0x79, 0x3d, 0x2a, 0x00, 0x00, 0x00,
  0x62, 0x61, 0x63, 0x6b, 0x62, 0x6f, 0x6e, 0x65, 0x5f, 0x72, 0x61, 0x77,
  0x5f, 0x31, 0x2f, 0x6d, 0x61, 0x78, 0x5f, 0x70, 0x6f, 0x6f, 0x6c, 0x69,
  0x6e, 0x67, 0x32, 0x64, 0x5f, 0x32, 0x5f, 0x31, 0x2f, 0x4d, 0x61, 0x78,
  0x50, 0x6f, 0x6f, 0x6c, 0x32, 0x64, 0x00, 0x00, 0x04, 0x00, 0x00, 0x00,
  0x01, 0x00, 0x00, 0x00, 0x09, 0x00, 0x00, 0x00, 0x14, 0x00, 0x00, 0x00,
  0x08, 0x00, 0x00, 0x00, 0xba, 0xed, 0xff, 0xff, 0x00, 0x00, 0x00, 0x01,
  0x18, 0x00, 0x00, 0x00, 0x28, 0x00, 0x00, 0x00, 0x48, 0x00, 0x00, 0x00,
  0x15, 0x00, 0x00, 0x00, 0x00, 0x00, 0x00, 0x09, 0xf8, 0x00, 0x00, 0x00,
  0x04, 0x00, 0x00, 0x00, 0xff, 0xff, 0xff, 0xff, 0x12, 0x00, 0x00, 0x00,
  0x28, 0x00, 0x00, 0x00, 0x08, 0x00, 0x00, 0x00, 0xa4, 0xed, 0xff, 0xff,
  0x08, 0x00, 0x00, 0x00, 0x14, 0x00, 0x00, 0x00, 0x01, 0x00, 0x00, 0x00,
  0x80, 0xff, 0xff, 0xff, 0xff, 0xff, 0xff, 0xff, 0x00, 0x00, 0x00, 0x00,
  0x01, 0x00, 0x00, 0x00, 0x6b, 0x9f, 0x79, 0x3d, 0xb5, 0x00, 0x00, 0x00,
  0x62, 0x61, 0x63, 0x6b, 0x62, 0x6f, 0x6e, 0x65, 0x5f, 0x72, 0x61, 0x77,
  0x5f, 0x31, 0x2f, 0x73, 0x65, 0x70, 0x61, 0x72, 0x61, 0x62, 0x6c, 0x65,
  0x5f, 0x63, 0x6f, 0x6e, 0x76, 0x32, 0x64, 0x5f, 0x32, 0x5f, 0x31, 0x2f,
  0x52, 0x65, 0x6c, 0x75, 0x3b, 0x62, 0x61, 0x63, 0x6b, 0x62, 0x6f, 0x6e,
  0x65, 0x5f, 0x72, 0x61, 0x77, 0x5f, 0x31, 0x2f, 0x73, 0x65, 0x70, 0x61,
  0x72, 0x61, 0x62, 0x6c, 0x65, 0x5f, 0x63, 0x6f, 0x6e, 0x76, 0x32, 0x64,
  0x5f, 0x32, 0x5f, 0x31, 0x2f, 0x42, 0x69, 0x61, 0x73, 0x41, 0x64, 0x64,
  0x3b, 0x62, 0x61, 0x63, 0x6b, 0x62, 0x6f, 0x6e, 0x65, 0x5f, 0x72, 0x61,
  0x77, 0x5f, 0x31, 0x2f, 0x73, 0x65, 0x70, 0x61, 0x72, 0x61, 0x62, 0x6c,
  0x65, 0x5f, 0x63, 0x6f, 0x6e, 0x76, 0x32, 0x64, 0x5f, 0x32, 0x5f, 0x31,
  0x2f, 0x73, 0x65, 0x70, 0x61, 0x72, 0x61, 0x62, 0x6c, 0x65, 0x5f, 0x63,
  0x6f, 0x6e, 0x76, 0x32, 0x64, 0x3b, 0x62, 0x61, 0x63, 0x6b, 0x62, 0x6f,
  0x6e, 0x65, 0x5f, 0x72, 0x61, 0x77, 0x5f, 0x31, 0x2f, 0x73, 0x65, 0x70,
  0x61, 0x72, 0x61, 0x62, 0x6c, 0x65, 0x5f, 0x63, 0x6f, 0x6e, 0x76, 0x32,
  0x64, 0x5f, 0x32, 0x5f, 0x31, 0x2f, 0x53, 0x71, 0x75, 0x65, 0x65, 0x7a,
  0x65, 0x00, 0x00, 0x00, 0x04, 0x00, 0x00, 0x00, 0x01, 0x00, 0x00, 0x00,
  0x12, 0x00, 0x00, 0x00, 0x28, 0x00, 0x00, 0x00, 0x08, 0x00, 0x00, 0x00,
  0xe2, 0xee, 0xff, 0xff, 0x00, 0x00, 0x00, 0x01, 0x18, 0x00, 0x00, 0x00,
  0x28, 0x00, 0x00, 0x00, 0x48, 0x00, 0x00, 0x00, 0x14, 0x00, 0x00, 0x00,
  0x00, 0x00, 0x00, 0x09, 0x80, 0x00, 0x00, 0x00, 0x04, 0x00, 0x00, 0x00,
  0xff, 0xff, 0xff, 0xff, 0x12, 0x00, 0x00, 0x00, 0x28, 0x00, 0x00, 0x00,
  0x08, 0x00, 0x00, 0x00, 0xcc, 0xee, 0xff, 0xff, 0x08, 0x00, 0x00, 0x00,
  0x14, 0x00, 0x00, 0x00, 0x01, 0x00, 0x00, 0x00, 0xf8, 0xff, 0xff, 0xff,
  0xff, 0xff, 0xff, 0xff, 0x00, 0x00, 0x00, 0x00, 0x01, 0x00, 0x00, 0x00,
  0x1d, 0x67, 0x15, 0x3e, 0x3e, 0x00, 0x00, 0x00, 0x62, 0x61, 0x63, 0x6b,
  0x62, 0x6f, 0x6e, 0x65, 0x5f, 0x72, 0x61, 0x77, 0x5f, 0x31, 0x2f, 0x73,
  0x65, 0x70, 0x61, 0x72, 0x61, 0x62, 0x6c, 0x65, 0x5f, 0x63, 0x6f, 0x6e,
  0x76, 0x32, 0x64, 0x5f, 0x32, 0x5f, 0x31, 0x2f, 0x73, 0x65, 0x70, 0x61,
  0x72, 0x61, 0x62, 0x6c, 0x65, 0x5f, 0x63, 0x6f, 0x6e, 0x76, 0x32, 0x64,
  0x2f, 0x64, 0x65, 0x70, 0x74, 0x68, 0x77, 0x69, 0x73, 0x65, 0x00, 0x00,
  0x04, 0x00, 0x00, 0x00, 0x01, 0x00, 0x00, 0x00, 0x12, 0x00, 0x00, 0x00,
  0x28, 0x00, 0x00, 0x00, 0x08, 0x00, 0x00, 0x00, 0x92, 0xef, 0xff, 0xff,
  0x00, 0x00, 0x00, 0x01, 0x18, 0x00, 0x00, 0x00, 0x28, 0x00, 0x00, 0x00,
  0x44, 0x00, 0x00, 0x00, 0x13, 0x00, 0x00, 0x00, 0x00, 0x00, 0x00, 0x09,
  0xc8, 0x00, 0x00, 0x00, 0x04, 0x00, 0x00, 0x00, 0xff, 0xff, 0xff, 0xff,
  0x12, 0x00, 0x00, 0x00, 0x28, 0x00, 0x00, 0x00, 0x08, 0x00, 0x00, 0x00,
  0x7c, 0xef, 0xff, 0xff, 0x08, 0x00, 0x00, 0x00, 0x10, 0x00, 0x00, 0x00,
  0x01, 0x00, 0x00, 0x00, 0x80, 0xff, 0xff, 0xff, 0xff, 0xff, 0xff, 0xff,
  0x01, 0x00, 0x00, 0x00, 0x59, 0x0c, 0x55, 0x3e, 0x89, 0x00, 0x00, 0x00,
  0x62, 0x61, 0x63, 0x6b, 0x62, 0x6f, 0x6e, 0x65, 0x5f, 0x72, 0x61, 0x77,
  0x5f, 0x31, 0x2f, 0x63, 0x6f, 0x6e, 0x76, 0x32, 0x64, 0x5f, 0x32, 0x5f,
  0x31, 0x2f, 0x52, 0x65, 0x6c, 0x75, 0x3b, 0x62, 0x61, 0x63, 0x6b, 0x62,
  0x6f, 0x6e, 0x65, 0x5f, 0x72, 0x61, 0x77, 0x5f, 0x31, 0x2f, 0x63, 0x6f,
  0x6e, 0x76, 0x32, 0x64, 0x5f, 0x32, 0x5f, 0x31, 0x2f, 0x42, 0x69, 0x61,
  0x73, 0x41, 0x64, 0x64, 0x3b, 0x62, 0x61, 0x63, 0x6b, 0x62, 0x6f, 0x6e,
  0x65, 0x5f, 0x72, 0x61, 0x77, 0x5f, 0x31, 0x2f, 0x63, 0x6f, 0x6e, 0x76,
  0x32, 0x64, 0x5f, 0x32, 0x5f, 0x31, 0x2f, 0x63, 0x6f, 0x6e, 0x76, 0x6f,
  0x6c, 0x75, 0x74, 0x69, 0x6f, 0x6e, 0x3b, 0x62, 0x61, 0x63, 0x6b, 0x62,
  0x6f, 0x6e, 0x65, 0x5f, 0x72, 0x61, 0x77, 0x5f, 0x31, 0x2f, 0x63, 0x6f,
  0x6e, 0x76, 0x32, 0x64, 0x5f, 0x32, 0x5f, 0x31, 0x2f, 0x53, 0x71, 0x75,
  0x65, 0x65, 0x7a, 0x65, 0x31, 0x00, 0x00, 0x00, 0x04, 0x00, 0x00, 0x00,
  0x01, 0x00, 0x00, 0x00, 0x12, 0x00, 0x00, 0x00, 0x28, 0x00, 0x00, 0x00,
  0x08, 0x00, 0x00, 0x00, 0xe2, 0xf0, 0xff, 0xff, 0x00, 0x00, 0x00, 0x01,
  0x14, 0x00, 0x00, 0x00, 0x88, 0x00, 0x00, 0x00, 0x12, 0x00, 0x00, 0x00,
  0x00, 0x00, 0x00, 0x09, 0x94, 0x00, 0x00, 0x00, 0x5c, 0xf0, 0xff, 0xff,
  0x08, 0x00, 0x00, 0x00, 0x4c, 0x00, 0x00, 0x00, 0x08, 0x00, 0x00, 0x00,
  0x00, 0x00, 0x00, 0x00, 0x00, 0x00, 0x00, 0x00, 0x00, 0x00, 0x00, 0x00,
  0x00, 0x00, 0x00, 0x00, 0x00, 0x00, 0x00, 0x00, 0x00, 0x00, 0x00, 0x00,
  0x00, 0x00, 0x00, 0x00, 0x00, 0x00, 0x00, 0x00, 0x00, 0x00, 0x00, 0x00,
  0x00, 0x00, 0x00, 0x00, 0x00, 0x00, 0x00, 0x00, 0x00, 0x00, 0x00, 0x00,
  0x00, 0x00, 0x00, 0x00, 0x00, 0x00, 0x00, 0x00, 0x00, 0x00, 0x00, 0x00,
  0x00, 0x00, 0x00, 0x00, 0x00, 0x00, 0x00, 0x00, 0x08, 0x00, 0x00, 0x00,
  0xe6, 0x03, 0xd1, 0x3a, 0x34, 0x27, 0x0a, 0x3b, 0x33, 0x07, 0x12, 0x3b,
  0x70, 0x27, 0xe4, 0x3a, 0x64, 0x42, 0xd4, 0x3a, 0x57, 0x1b, 0x0a, 0x3b,
  0x9c, 0xfd, 0x0b, 0x3b, 0x6b, 0xfe, 0x1f, 0x3b, 0x13, 0x00, 0x00, 0x00,
  0x74, 0x66, 0x6c, 0x2e, 0x70, 0x73, 0x65, 0x75, 0x64, 0x6f, 0x5f, 0x71,
  0x63, 0x6f, 0x6e, 0x73, 0x74, 0x31, 0x33, 0x00, 0x04, 0x00, 0x00, 0x00,
  0x08, 0x00, 0x00, 0x00, 0x03, 0x00, 0x00, 0x00, 0x03, 0x00, 0x00, 0x00,
  0x01, 0x00, 0x00, 0x00, 0xa2, 0xf1, 0xff, 0xff, 0x00, 0x00, 0x00, 0x01,
  0x14, 0x00, 0x00, 0x00, 0x88, 0x00, 0x00, 0x00, 0x11, 0x00, 0x00, 0x00,
  0x00, 0x00, 0x00, 0x02, 0x94, 0x00, 0x00, 0x00, 0x1c, 0xf1, 0xff, 0xff,
  0x08, 0x00, 0x00, 0x00, 0x4c, 0x00, 0x00, 0x00, 0x08, 0x00, 0x00, 0x00,
  0x00, 0x00, 0x00, 0x00, 0x00, 0x00, 0x00, 0x00, 0x00, 0x00, 0x00, 0x00,
  0x00, 0x00, 0x00, 0x00, 0x00, 0x00, 0x00, 0x00, 0x00, 0x00, 0x00, 0x00,
  0x00, 0x00, 0x00, 0x00, 0x00, 0x00, 0x00, 0x00, 0x00, 0x00, 0x00, 0x00,
  0x00, 0x00, 0x00, 0x00, 0x00, 0x00, 0x00, 0x00, 0x00, 0x00, 0x00, 0x00,
  0x00, 0x00, 0x00, 0x00, 0x00, 0x00, 0x00, 0x00, 0x00, 0x00, 0x00, 0x00,
  0x00, 0x00, 0x00, 0x00, 0x00, 0x00, 0x00, 0x00, 0x08, 0x00, 0x00, 0x00,
  0xab, 0x80, 0x25, 0x3a, 0xfa, 0xc8, 0x5a, 0x3a, 0x97, 0x41, 0x67, 0x3a,
  0x3a, 0xa8, 0x34, 0x3a, 0x45, 0x12, 0x28, 0x3a, 0x30, 0xb6, 0x5a, 0x3a,
  0xee, 0xb1, 0x5d, 0x3a, 0x75, 0x5f, 0x7d, 0x3a, 0x13, 0x00, 0x00, 0x00,
  0x74, 0x66, 0x6c, 0x2e, 0x70, 0x73, 0x65, 0x75, 0x64, 0x6f, 0x5f, 0x71,
  0x63, 0x6f, 0x6e, 0x73, 0x74, 0x31, 0x32, 0x00, 0x01, 0x00, 0x00, 0x00,
  0x08, 0x00, 0x00, 0x00, 0x56, 0xf2, 0xff, 0xff, 0x00, 0x00, 0x00, 0x01,
  0x14, 0x00, 0x00, 0x00, 0x8c, 0x00, 0x00, 0x00, 0x10, 0x00, 0x00, 0x00,
  0x00, 0x00, 0x00, 0x09, 0x98, 0x00, 0x00, 0x00, 0xea, 0xfa, 0xff, 0xff,
  0x03, 0x00, 0x00, 0x00, 0x08, 0x00, 0x00, 0x00, 0x4c, 0x00, 0x00, 0x00,
  0x08, 0x00, 0x00, 0x00, 0x00, 0x00, 0x00, 0x00, 0x00, 0x00, 0x00, 0x00,
  0x00, 0x00, 0x00, 0x00, 0x00, 0x00, 0x00, 0x00, 0x00, 0x00, 0x00, 0x00,
  0x00, 0x00, 0x00, 0x00, 0x00, 0x00, 0x00, 0x00, 0x00, 0x00, 0x00, 0x00,
  0x00, 0x00, 0x00, 0x00, 0x00, 0x00, 0x00, 0x00, 0x00, 0x00, 0x00, 0x00,
  0x00, 0x00, 0x00, 0x00, 0x00, 0x00, 0x00, 0x00, 0x00, 0x00, 0x00, 0x00,
  0x00, 0x00, 0x00, 0x00, 0x00, 0x00, 0x00, 0x00, 0x00, 0x00, 0x00, 0x00,
  0x08, 0x00, 0x00, 0x00, 0x1b, 0x27, 0xf7, 0x3a, 0xb4, 0x1c, 0xe5, 0x3a,
  0x5a, 0x6b, 0x1a, 0x3b, 0x75, 0x84, 0x07, 0x3b, 0x72, 0x24, 0x02, 0x3b,
  0x47, 0x82, 0x12, 0x3b, 0x6e, 0xee, 0x05, 0x3b, 0x1d, 0x59, 0x12, 0x3b,
  0x13, 0x00, 0x00, 0x00, 0x74, 0x66, 0x6c, 0x2e, 0x70, 0x73, 0x65, 0x75,
  0x64, 0x6f, 0x5f, 0x71, 0x63, 0x6f, 0x6e, 0x73, 0x74, 0x31, 0x31, 0x00,
  0x04, 0x00, 0x00, 0x00, 0x01, 0x00, 0x00, 0x00, 0x03, 0x00, 0x00, 0x00,
  0x03, 0x00, 0x00, 0x00, 0x08, 0x00, 0x00, 0x00, 0x1a, 0xf3, 0xff, 0xff,
  0x00, 0x00, 0x00, 0x01, 0x14, 0x00, 0x00, 0x00, 0x84, 0x00, 0x00, 0x00,
  0x0f, 0x00, 0x00, 0x00, 0x00, 0x00, 0x00, 0x02, 0x90, 0x00, 0x00, 0x00,
  0x94, 0xf2, 0xff, 0xff, 0x08, 0x00, 0x00, 0x00, 0x48, 0x00, 0x00, 0x00,
  0x08, 0x00, 0x00, 0x00, 0x00, 0x00, 0x00, 0x00, 0x00, 0x00, 0x00, 0x00,
  0x00, 0x00, 0x00, 0x00, 0x00, 0x00, 0x00, 0x00, 0x00, 0x00, 0x00, 0x00,
  0x00, 0x00, 0x00, 0x00, 0x00, 0x00, 0x00, 0x00, 0x00, 0x00, 0x00, 0x00,
  0x00, 0x00, 0x00, 0x00, 0x00, 0x00, 0x00, 0x00, 0x00, 0x00, 0x00, 0x00,
  0x00, 0x00, 0x00, 0x00, 0x00, 0x00, 0x00, 0x00, 0x00, 0x00, 0x00, 0x00,
  0x00, 0x00, 0x00, 0x00, 0x00, 0x00, 0x00, 0x00, 0x08, 0x00, 0x00, 0x00,
  0x75, 0xaf, 0xcd, 0x39, 0xef, 0xab, 0xbe, 0x39, 0xc5, 0x82, 0x00, 0x3a,
  0x7d, 0x8f, 0xe1, 0x39, 0x34, 0x9d, 0xd8, 0x39, 0xec, 0xda, 0xf3, 0x39,
  0xaf, 0xeb, 0xde, 0x39, 0x68, 0x96, 0xf3, 0x39, 0x13, 0x00, 0x00, 0x00,
  0x74, 0x66, 0x6c, 0x2e, 0x70, 0x73, 0x65, 0x75, 0x64, 0x6f, 0x5f, 0x71,
  0x63, 0x6f, 0x6e, 0x73, 0x74, 0x31, 0x30, 0x00, 0x01, 0x00, 0x00, 0x00,
  0x08, 0x00, 0x00, 0x00, 0xca, 0xf3, 0xff, 0xff, 0x00, 0x00, 0x00, 0x01,
  0x14, 0x00, 0x00, 0x00, 0x88, 0x00, 0x00, 0x00, 0x0e, 0x00, 0x00, 0x00,
  0x00, 0x00, 0x00, 0x09, 0x94, 0x00, 0x00, 0x00, 0x44, 0xf3, 0xff, 0xff,
  0x08, 0x00, 0x00, 0x00, 0x4c, 0x00, 0x00, 0x00, 0x08, 0x00, 0x00, 0x00,
  0x00, 0x00, 0x00, 0x00, 0x00, 0x00, 0x00, 0x00, 0x00, 0x00, 0x00, 0x00,
  0x00, 0x00, 0x00, 0x00, 0x00, 0x00, 0x00, 0x00, 0x00, 0x00, 0x00, 0x00,
  0x00, 0x00, 0x00, 0x00, 0x00, 0x00, 0x00, 0x00, 0x00, 0x00, 0x00, 0x00,
  0x00, 0x00, 0x00, 0x00, 0x00, 0x00, 0x00, 0x00, 0x00, 0x00, 0x00, 0x00,
  0x00, 0x00, 0x00, 0x00, 0x00, 0x00, 0x00, 0x00, 0x00, 0x00, 0x00, 0x00,
  0x00, 0x00, 0x00, 0x00, 0x00, 0x00, 0x00, 0x00, 0x08, 0x00, 0x00, 0x00,
  0x2a, 0x06, 0xa4, 0x3b, 0x7d, 0x9b, 0x9a, 0x3b, 0x1e, 0x1b, 0x97, 0x3b,
  0x28, 0xa5, 0x43, 0x3b, 0xf9, 0xc3, 0x8e, 0x3b, 0x91, 0xc4, 0xac, 0x3b,
  0x6e, 0xbc, 0x6e, 0x3b, 0x36, 0x59, 0x94, 0x3b, 0x12, 0x00, 0x00, 0x00,
  0x74, 0x66, 0x6c, 0x2e, 0x70, 0x73, 0x65, 0x75, 0x64, 0x6f, 0x5f, 0x71,
  0x63, 0x6f, 0x6e, 0x73, 0x74, 0x39, 0x00, 0x00, 0x04, 0x00, 0x00, 0x00,
  0x08, 0x00, 0x00, 0x00, 0x01, 0x00, 0x00, 0x00, 0x01, 0x00, 0x00, 0x00,
  0x08, 0x00, 0x00, 0x00, 0x8a, 0xf4, 0xff, 0xff, 0x00, 0x00, 0x00, 0x01,
  0x14, 0x00, 0x00, 0x00, 0x84, 0x00, 0x00, 0x00, 0x0d, 0x00, 0x00, 0x00,
  0x00, 0x00, 0x00, 0x02, 0x90, 0x00, 0x00, 0x00, 0x04, 0xf4, 0xff, 0xff,
  0x08, 0x00, 0x00, 0x00, 0x48, 0x00, 0x00, 0x00, 0x08, 0x00, 0x00, 0x00,
  0x00, 0x00, 0x00, 0x00, 0x00, 0x00, 0x00, 0x00, 0x00, 0x00, 0x00, 0x00,
  0x00, 0x00, 0x00, 0x00, 0x00, 0x00, 0x00, 0x00, 0x00, 0x00, 0x00, 0x00,
  0x00, 0x00, 0x00, 0x00, 0x00, 0x00, 0x00, 0x00, 0x00, 0x00, 0x00, 0x00,
  0x00, 0x00, 0x00, 0x00, 0x00, 0x00, 0x00, 0x00, 0x00, 0x00, 0x00, 0x00,
  0x00, 0x00, 0x00, 0x00, 0x00, 0x00, 0x00, 0x00, 0x00, 0x00, 0x00, 0x00,
  0x00, 0x00, 0x00, 0x00, 0x08, 0x00, 0x00, 0x00, 0x4f, 0x73, 0x3f, 0x3a,
  0x8c, 0x75, 0x34, 0x3a, 0x4b, 0x5f, 0x30, 0x3a, 0xdc, 0x5b, 0xe4, 0x39,
  0x22, 0xa3, 0x26, 0x3a, 0xfe, 0xa7, 0x49, 0x3a, 0xd5, 0x53, 0x0b, 0x3a,
  0x5a, 0x27, 0x2d, 0x3a, 0x12, 0x00, 0x00, 0x00, 0x74, 0x66, 0x6c, 0x2e,
  0x70, 0x73, 0x65, 0x75, 0x64, 0x6f, 0x5f, 0x71, 0x63, 0x6f, 0x6e, 0x73,
  0x74, 0x38, 0x00, 0x00, 0x01, 0x00, 0x00, 0x00, 0x08, 0x00, 0x00, 0x00,
  0x3a, 0xf5, 0xff, 0xff, 0x00, 0x00, 0x00, 0x01, 0x14, 0x00, 0x00, 0x00,
  0xe8, 0x00, 0x00, 0x00, 0x0c, 0x00, 0x00, 0x00, 0x00, 0x00, 0x00, 0x09,
  0xf4, 0x00, 0x00, 0x00, 0xb4, 0xf4, 0xff, 0xff, 0x08, 0x00, 0x00, 0x00,
  0x8c, 0x00, 0x00, 0x00, 0x10, 0x00, 0x00, 0x00, 0x00, 0x00, 0x00, 0x00,
  0x00, 0x00, 0x00, 0x00, 0x00, 0x00, 0x00, 0x00, 0x00, 0x00, 0x00, 0x00,
  0x00, 0x00, 0x00, 0x00, 0x00, 0x00, 0x00, 0x00, 0x00, 0x00, 0x00, 0x00,
  0x00, 0x00, 0x00, 0x00, 0x00, 0x00, 0x00, 0x00, 0x00, 0x00, 0x00, 0x00,
  0x00, 0x00, 0x00, 0x00, 0x00, 0x00, 0x00, 0x00, 0x00, 0x00, 0x00, 0x00,
  0x00, 0x00, 0x00, 0x00, 0x00, 0x00, 0x00, 0x00, 0x00, 0x00, 0x00, 0x00,
  0x00, 0x00, 0x00, 0x00, 0x00, 0x00, 0x00, 0x00, 0x00, 0x00, 0x00, 0x00,
  0x00, 0x00, 0x00, 0x00, 0x00, 0x00, 0x00, 0x00, 0x00, 0x00, 0x00, 0x00,
  0x00, 0x00, 0x00, 0x00, 0x00, 0x00, 0x00, 0x00, 0x00, 0x00, 0x00, 0x00,
  0x00, 0x00, 0x00, 0x00, 0x00, 0x00, 0x00, 0x00, 0x00, 0x00, 0x00, 0x00,
  0x00, 0x00, 0x00, 0x00, 0x00, 0x00, 0x00, 0x00, 0x00, 0x00, 0x00, 0x00,
  0x00, 0x00, 0x00, 0x00, 0x00, 0x00, 0x00, 0x00, 0x10, 0x00, 0x00, 0x00,
  0x86, 0x4b, 0xd9, 0x3a, 0x3e, 0x71, 0xf7, 0x3a, 0x76, 0x84, 0x00, 0x3b,
  0x46, 0xa4, 0x29, 0x3b, 0xe0, 0x04, 0xf4, 0x3a, 0x52, 0x37, 0xd1, 0x3a,
  0x71, 0x58, 0xb9, 0x3a, 0xf4, 0xc1, 0x00, 0x3b, 0x0d, 0xce, 0xd5, 0x3a,
  0xa5, 0xa3, 0x2b, 0x3b, 0xe7, 0xfb, 0xc3, 0x3a, 0x8e, 0xc0, 0xe3, 0x3a,
  0x93, 0x57, 0xb2, 0x3a, 0x3b, 0x38, 0xe0, 0x3a, 0xb8, 0x73, 0xd3, 0x3a,
  0x47, 0x68, 0xd1, 0x3a, 0x12, 0x00, 0x00, 0x00, 0x74, 0x66, 0x6c, 0x2e,
  0x70, 0x73, 0x65, 0x75, 0x64, 0x6f, 0x5f, 0x71, 0x63, 0x6f, 0x6e, 0x73,
  0x74, 0x37, 0x00, 0x00, 0x04, 0x00, 0x00, 0x00, 0x10, 0x00, 0x00, 0x00,
  0x03, 0x00, 0x00, 0x00, 0x03, 0x00, 0x00, 0x00, 0x08, 0x00, 0x00, 0x00,
  0x5a, 0xf6, 0xff, 0xff, 0x00, 0x00, 0x00, 0x01, 0x14, 0x00, 0x00, 0x00,
  0xe4, 0x00, 0x00, 0x00, 0x0b, 0x00, 0x00, 0x00, 0x00, 0x00, 0x00, 0x02,
  0xf0, 0x00, 0x00, 0x00, 0xd4, 0xf5, 0xff, 0xff, 0x08, 0x00, 0x00, 0x00,
  0x88, 0x00, 0x00, 0x00, 0x10, 0x00, 0x00, 0x00, 0x00, 0x00, 0x00, 0x00,
  0x00, 0x00, 0x00, 0x00, 0x00, 0x00, 0x00, 0x00, 0x00, 0x00, 0x00, 0x00,
  0x00, 0x00, 0x00, 0x00, 0x00, 0x00, 0x00, 0x00, 0x00, 0x00, 0x00, 0x00,
  0x00, 0x00, 0x00, 0x00, 0x00, 0x00, 0x00, 0x00, 0x00, 0x00, 0x00, 0x00,
  0x00, 0x00, 0x00, 0x00, 0x00, 0x00, 0x00, 0x00, 0x00, 0x00, 0x00, 0x00,
  0x00, 0x00, 0x00, 0x00, 0x00, 0x00, 0x00, 0x00, 0x00, 0x00, 0x00, 0x00,
  0x00, 0x00, 0x00, 0x00, 0x00, 0x00, 0x00, 0x00, 0x00, 0x00, 0x00, 0x00,
  0x00, 0x00, 0x00, 0x00, 0x00, 0x00, 0x00, 0x00, 0x00, 0x00, 0x00, 0x00,
  0x00, 0x00, 0x00, 0x00, 0x00, 0x00, 0x00, 0x00, 0x00, 0x00, 0x00, 0x00,
  0x00, 0x00, 0x00, 0x00, 0x00, 0x00, 0x00, 0x00, 0x00, 0x00, 0x00, 0x00,
  0x00, 0x00, 0x00, 0x00, 0x00, 0x00, 0x00, 0x00, 0x00, 0x00, 0x00, 0x00,
  0x00, 0x00, 0x00, 0x00, 0x10, 0x00, 0x00, 0x00, 0xc6, 0xe1, 0xd3, 0x38,
  0x3c, 0x47, 0xf1, 0x38, 0xbe, 0xa1, 0xfa, 0x38, 0x6c, 0x6a, 0x25, 0x39,
  0xb3, 0xf0, 0xed, 0x38, 0x18, 0x01, 0xcc, 0x38, 0x71, 0xba, 0xb4, 0x38,
  0xa9, 0x19, 0xfb, 0x38, 0x8f, 0x7a, 0xd0, 0x38, 0x0e, 0x5d, 0x27, 0x39,
  0x0f, 0x1a, 0xbf, 0x38, 0x1e, 0x14, 0xde, 0x38, 0x3d, 0xe6, 0xad, 0x38,
  0x52, 0xa2, 0xda, 0x38, 0x3b, 0x2f, 0xce, 0x38, 0xd4, 0x30, 0xcc, 0x38,
  0x12, 0x00, 0x00, 0x00, 0x74, 0x66, 0x6c, 0x2e, 0x70, 0x73, 0x65, 0x75,
  0x64, 0x6f, 0x5f, 0x71, 0x63, 0x6f, 0x6e, 0x73, 0x74, 0x36, 0x00, 0x00,
  0x01, 0x00, 0x00, 0x00, 0x10, 0x00, 0x00, 0x00, 0x6a, 0xf7, 0xff, 0xff,
  0x00, 0x00, 0x00, 0x01, 0x28, 0x00, 0x00, 0x00, 0x00, 0x01, 0x00, 0x00,
  0x0a, 0x00, 0x00, 0x00, 0x00, 0x00, 0x00, 0x09, 0x0c, 0x01, 0x00, 0x00,
  0x00, 0x00, 0x12, 0x00, 0x10, 0x00, 0x00, 0x00, 0x00, 0x00, 0x0c, 0x00,
  0x08, 0x00, 0x00, 0x00, 0x00, 0x00, 0x04, 0x00, 0x12, 0x00, 0x00, 0x00,
  0x03, 0x00, 0x00, 0x00, 0x08, 0x00, 0x00, 0x00, 0x8c, 0x00, 0x00, 0x00,
  0x10, 0x00, 0x00, 0x00, 0x00, 0x00, 0x00, 0x00, 0x00, 0x00, 0x00, 0x00,
  0x00, 0x00, 0x00, 0x00, 0x00, 0x00, 0x00, 0x00, 0x00, 0x00, 0x00, 0x00,
  0x00, 0x00, 0x00, 0x00, 0x00, 0x00, 0x00, 0x00, 0x00, 0x00, 0x00, 0x00,
  0x00, 0x00, 0x00, 0x00, 0x00, 0x00, 0x00, 0x00, 0x00, 0x00, 0x00, 0x00,
  0x00, 0x00, 0x00, 0x00, 0x00, 0x00, 0x00, 0x00, 0x00, 0x00, 0x00, 0x00,
  0x00, 0x00, 0x00, 0x00, 0x00, 0x00, 0x00, 0x00, 0x00, 0x00, 0x00, 0x00,
  0x00, 0x00, 0x00, 0x00, 0x00, 0x00, 0x00, 0x00, 0x00, 0x00, 0x00, 0x00,
  0x00, 0x00, 0x00, 0x00, 0x00, 0x00, 0x00, 0x00, 0x00, 0x00, 0x00, 0x00,
  0x00, 0x00, 0x00, 0x00, 0x00, 0x00, 0x00, 0x00, 0x00, 0x00, 0x00, 0x00,
  0x00, 0x00, 0x00, 0x00, 0x00, 0x00, 0x00, 0x00, 0x00, 0x00, 0x00, 0x00,
  0x00, 0x00, 0x00, 0x00, 0x00, 0x00, 0x00, 0x00, 0x00, 0x00, 0x00, 0x00,
  0x00, 0x00, 0x00, 0x00, 0x10, 0x00, 0x00, 0x00, 0xa5, 0xdc, 0xc5, 0x3a,
  0x1f, 0xdd, 0xf0, 0x3a, 0xc2, 0x28, 0xc0, 0x3a, 0x04, 0xdc, 0x1e, 0x3b,
  0xfe, 0xb0, 0x03, 0x3b, 0x83, 0xca, 0xbe, 0x3a, 0x78, 0x1f, 0xd0, 0x3a,
  0x9f, 0x91, 0xce, 0x3a, 0xd2, 0xdb, 0xcc, 0x3a, 0xa6, 0xd5, 0x31, 0x3b,
  0xaa, 0xda, 0xc3, 0x3a, 0x4b, 0x5f, 0xd3, 0x3a, 0xa6, 0xf8, 0x8c, 0x3a,
  0x50, 0xdf, 0xbc, 0x3a, 0x66, 0x7f, 0xe8, 0x3a, 0x4e, 0xe5, 0xab, 0x3a,
  0x12, 0x00, 0x00, 0x00, 0x74, 0x66, 0x6c, 0x2e, 0x70, 0x73, 0x65, 0x75,
  0x64, 0x6f, 0x5f, 0x71, 0x63, 0x6f, 0x6e, 0x73, 0x74, 0x35, 0x00, 0x00,
  0x04, 0x00, 0x00, 0x00, 0x01, 0x00, 0x00, 0x00, 0x03, 0x00, 0x00, 0x00,
  0x03, 0x00, 0x00, 0x00, 0x10, 0x00, 0x00, 0x00, 0xa2, 0xf8, 0xff, 0xff,
  0x00, 0x00, 0x00, 0x01, 0x14, 0x00, 0x00, 0x00, 0xe4, 0x00, 0x00, 0x00,
  0x09, 0x00, 0x00, 0x00, 0x00, 0x00, 0x00, 0x02, 0xf0, 0x00, 0x00, 0x00,
  0x1c, 0xf8, 0xff, 0xff, 0x08, 0x00, 0x00, 0x00, 0x88, 0x00, 0x00, 0x00,
  0x10, 0x00, 0x00, 0x00, 0x00, 0x00, 0x00, 0x00, 0x00, 0x00, 0x00, 0x00,
  0x00, 0x00, 0x00, 0x00, 0x00, 0x00, 0x00, 0x00, 0x00, 0x00, 0x00, 0x00,
  0x00, 0x00, 0x00, 0x00, 0x00, 0x00, 0x00, 0x00, 0x00, 0x00, 0x00, 0x00,
  0x00, 0x00, 0x00, 0x00, 0x00, 0x00, 0x00, 0x00, 0x00, 0x00, 0x00, 0x00,
  0x00, 0x00, 0x00, 0x00, 0x00, 0x00, 0x00, 0x00, 0x00, 0x00, 0x00, 0x00,
  0x00, 0x00, 0x00, 0x00, 0x00, 0x00, 0x00, 0x00, 0x00, 0x00, 0x00, 0x00,
  0x00, 0x00, 0x00, 0x00, 0x00, 0x00, 0x00, 0x00, 0x00, 0x00, 0x00, 0x00,
  0x00, 0x00, 0x00, 0x00, 0x00, 0x00, 0x00, 0x00, 0x00, 0x00, 0x00, 0x00,
  0x00, 0x00, 0x00, 0x00, 0x00, 0x00, 0x00, 0x00, 0x00, 0x00, 0x00, 0x00,
  0x00, 0x00, 0x00, 0x00, 0x00, 0x00, 0x00, 0x00, 0x00, 0x00, 0x00, 0x00,
  0x00, 0x00, 0x00, 0x00, 0x00, 0x00, 0x00, 0x00, 0x00, 0x00, 0x00, 0x00,
  0x10, 0x00, 0x00, 0x00, 0xd8, 0x12, 0x35, 0x38, 0x44, 0x6d, 0x5c, 0x38,
  0xd3, 0xda, 0x2f, 0x38, 0x65, 0x61, 0x91, 0x38, 0xfd, 0x08, 0x71, 0x38,
  0x4c, 0x9a, 0x2e, 0x38, 0xc9, 0x76, 0x3e, 0x38, 0xb2, 0x0a, 0x3d, 0x38,
  0x0a, 0x7a, 0x3b, 0x38, 0xdd, 0xbe, 0xa2, 0x38, 0x79, 0x3c, 0x33, 0x38,
  0x08, 0x70, 0x41, 0x38, 0x94, 0x02, 0x01, 0x38, 0xc6, 0xd8, 0x2c, 0x38,
  0x44, 0xc5, 0x54, 0x38, 0x85, 0x4f, 0x1d, 0x38, 0x12, 0x00, 0x00, 0x00,
  0x74, 0x66, 0x6c, 0x2e, 0x70, 0x73, 0x65, 0x75, 0x64, 0x6f, 0x5f, 0x71,
  0x63, 0x6f, 0x6e, 0x73, 0x74, 0x34, 0x00, 0x00, 0x01, 0x00, 0x00, 0x00,
  0x10, 0x00, 0x00, 0x00, 0xb2, 0xf9, 0xff, 0xff, 0x00, 0x00, 0x00, 0x01,
  0x14, 0x00, 0x00, 0x00, 0xe8, 0x00, 0x00, 0x00, 0x08, 0x00, 0x00, 0x00,
  0x00, 0x00, 0x00, 0x09, 0xf4, 0x00, 0x00, 0x00, 0x2c, 0xf9, 0xff, 0xff,
  0x08, 0x00, 0x00, 0x00, 0x8c, 0x00, 0x00, 0x00, 0x10, 0x00, 0x00, 0x00,
  0x00, 0x00, 0x00, 0x00, 0x00, 0x00, 0x00, 0x00, 0x00, 0x00, 0x00, 0x00,
  0x00, 0x00, 0x00, 0x00, 0x00, 0x00, 0x00, 0x00, 0x00, 0x00, 0x00, 0x00,
  0x00, 0x00, 0x00, 0x00, 0x00, 0x00, 0x00, 0x00, 0x00, 0x00, 0x00, 0x00,
  0x00, 0x00, 0x00, 0x00, 0x00, 0x00, 0x00, 0x00, 0x00, 0x00, 0x00, 0x00,
  0x00, 0x00, 0x00, 0x00, 0x00, 0x00, 0x00, 0x00, 0x00, 0x00, 0x00, 0x00,
  0x00, 0x00, 0x00, 0x00, 0x00, 0x00, 0x00, 0x00, 0x00, 0x00, 0x00, 0x00,
  0x00, 0x00, 0x00, 0x00, 0x00, 0x00, 0x00, 0x00, 0x00, 0x00, 0x00, 0x00,
  0x00, 0x00, 0x00, 0x00, 0x00, 0x00, 0x00, 0x00, 0x00, 0x00, 0x00, 0x00,
  0x00, 0x00, 0x00, 0x00, 0x00, 0x00, 0x00, 0x00, 0x00, 0x00, 0x00, 0x00,
  0x00, 0x00, 0x00, 0x00, 0x00, 0x00, 0x00, 0x00, 0x00, 0x00, 0x00, 0x00,
  0x00, 0x00, 0x00, 0x00, 0x00, 0x00, 0x00, 0x00, 0x00, 0x00, 0x00, 0x00,
  0x10, 0x00, 0x00, 0x00, 0x96, 0x91, 0x65, 0x3b, 0x71, 0x64, 0x61, 0x3b,
  0x93, 0x8b, 0x60, 0x3b, 0xdd, 0x2b, 0x78, 0x3b, 0xc5, 0x14, 0x93, 0x3b,
  0xba, 0xc0, 0x4a, 0x3b, 0x89, 0xd6, 0x5d, 0x3b, 0x5a, 0xc3, 0x5f, 0x3b,
  0x8a, 0x3b, 0x5b, 0x3b, 0x62, 0xc9, 0x83, 0x3b, 0xf9, 0xca, 0x7f, 0x3b,
  0x46, 0x5f, 0x69, 0x3b, 0xde, 0xd5, 0x6e, 0x3b, 0x91, 0x3d, 0x54, 0x3b,
  0xbc, 0x9b, 0x3e, 0x3b, 0x1d, 0xd5, 0x8c, 0x3b, 0x12, 0x00, 0x00, 0x00,
  0x74, 0x66, 0x6c, 0x2e, 0x70, 0x73, 0x65, 0x75, 0x64, 0x6f, 0x5f, 0x71,
  0x63, 0x6f, 0x6e, 0x73, 0x74, 0x33, 0x00, 0x00, 0x04, 0x00, 0x00, 0x00,
  0x10, 0x00, 0x00, 0x00, 0x01, 0x00, 0x00, 0x00, 0x01, 0x00, 0x00, 0x00,
  0x10, 0x00, 0x00, 0x00, 0xd2, 0xfa, 0xff, 0xff, 0x00, 0x00, 0x00, 0x01,
  0x14, 0x00, 0x00, 0x00, 0xe4, 0x00, 0x00, 0x00, 0x07, 0x00, 0x00, 0x00,
  0x00, 0x00, 0x00, 0x02, 0xf0, 0x00, 0x00, 0x00, 0x4c, 0xfa, 0xff, 0xff,
  0x08, 0x00, 0x00, 0x00, 0x88, 0x00, 0x00, 0x00, 0x10, 0x00, 0x00, 0x00,
  0x00, 0x00, 0x00, 0x00, 0x00, 0x00, 0x00, 0x00, 0x00, 0x00, 0x00, 0x00,
  0x00, 0x00, 0x00, 0x00, 0x00, 0x00, 0x00, 0x00, 0x00, 0x00, 0x00, 0x00,
  0x00, 0x00, 0x00, 0x00, 0x00, 0x00, 0x00, 0x00, 0x00, 0x00, 0x00, 0x00,
  0x00, 0x00, 0x00, 0x00, 0x00, 0x00, 0x00, 0x00, 0x00, 0x00, 0x00, 0x00,
  0x00, 0x00, 0x00, 0x00, 0x00, 0x00, 0x00, 0x00, 0x00, 0x00, 0x00, 0x00,
  0x00, 0x00, 0x00, 0x00, 0x00, 0x00, 0x00, 0x00, 0x00, 0x00, 0x00, 0x00,
  0x00, 0x00, 0x00, 0x00, 0x00, 0x00, 0x00, 0x00, 0x00, 0x00, 0x00, 0x00,
  0x00, 0x00, 0x00, 0x00, 0x00, 0x00, 0x00, 0x00, 0x00, 0x00, 0x00, 0x00,
  0x00, 0x00, 0x00, 0x00, 0x00, 0x00, 0x00, 0x00, 0x00, 0x00, 0x00, 0x00,
  0x00, 0x00, 0x00, 0x00, 0x00, 0x00, 0x00, 0x00, 0x00, 0x00, 0x00, 0x00,
  0x00, 0x00, 0x00, 0x00, 0x00, 0x00, 0x00, 0x00, 0x10, 0x00, 0x00, 0x00,
  0xa6, 0x49, 0x68, 0x38, 0xd7, 0x0f, 0x64, 0x38, 0x68, 0x34, 0x63, 0x38,
  0x54, 0x1c, 0x7b, 0x38, 0xba, 0xd2, 0x94, 0x38, 0x7b, 0x27, 0x4d, 0x38,
  0x28, 0x77, 0x60, 0x38, 0xd0, 0x69, 0x62, 0x38, 0x43, 0xd4, 0x5d, 0x38,
  0xf7, 0x58, 0x85, 0x38, 0x46, 0x69, 0x81, 0x38, 0xde, 0x22, 0x6c, 0x38,
  0x07, 0xaa, 0x71, 0x38, 0x17, 0xc1, 0x56, 0x38, 0xab, 0xdd, 0x40, 0x38,
  0x20, 0x80, 0x8e, 0x38, 0x12, 0x00, 0x00, 0x00, 0x74, 0x66, 0x6c, 0x2e,
  0x70, 0x73, 0x65, 0x75, 0x64, 0x6f, 0x5f, 0x71, 0x63, 0x6f, 0x6e, 0x73,
  0x74, 0x32, 0x00, 0x00, 0x01, 0x00, 0x00, 0x00, 0x10, 0x00, 0x00, 0x00,
  0xe2, 0xfb, 0xff, 0xff, 0x00, 0x00, 0x00, 0x01, 0x14, 0x00, 0x00, 0x00,
  0xa8, 0x01, 0x00, 0x00, 0x06, 0x00, 0x00, 0x00, 0x00, 0x00, 0x00, 0x09,
  0xb4, 0x01, 0x00, 0x00, 0x5c, 0xfb, 0xff, 0xff, 0x08, 0x00, 0x00, 0x00,
  0x0c, 0x01, 0x00, 0x00, 0x20, 0x00, 0x00, 0x00, 0x00, 0x00, 0x00, 0x00,
  0x00, 0x00, 0x00, 0x00, 0x00, 0x00, 0x00, 0x00, 0x00, 0x00, 0x00, 0x00,
  0x00, 0x00, 0x00, 0x00, 0x00, 0x00, 0x00, 0x00, 0x00, 0x00, 0x00, 0x00,
  0x00, 0x00, 0x00, 0x00, 0x00, 0x00, 0x00, 0x00, 0x00, 0x00, 0x00, 0x00,
  0x00, 0x00, 0x00, 0x00, 0x00, 0x00, 0x00, 0x00, 0x00, 0x00, 0x00, 0x00,
  0x00, 0x00, 0x00, 0x00, 0x00, 0x00, 0x00, 0x00, 0x00, 0x00, 0x00, 0x00,
  0x00, 0x00, 0x00, 0x00, 0x00, 0x00, 0x00, 0x00, 0x00, 0x00, 0x00, 0x00,
  0x00, 0x00, 0x00, 0x00, 0x00, 0x00, 0x00, 0x00, 0x00, 0x00, 0x00, 0x00,
  0x00, 0x00, 0x00, 0x00, 0x00, 0x00, 0x00, 0x00, 0x00, 0x00, 0x00, 0x00,
  0x00, 0x00, 0x00, 0x00, 0x00, 0x00, 0x00, 0x00, 0x00, 0x00, 0x00, 0x00,
  0x00, 0x00, 0x00, 0x00, 0x00, 0x00, 0x00, 0x00, 0x00, 0x00, 0x00, 0x00,
  0x00, 0x00, 0x00, 0x00, 0x00, 0x00, 0x00, 0x00, 0x00, 0x00, 0x00, 0x00,
  0x00, 0x00, 0x00, 0x00, 0x00, 0x00, 0x00, 0x00, 0x00, 0x00, 0x00, 0x00,
  0x00, 0x00, 0x00, 0x00, 0x00, 0x00, 0x00, 0x00, 0x00, 0x00, 0x00, 0x00,
  0x00, 0x00, 0x00, 0x00, 0x00, 0x00, 0x00, 0x00, 0x00, 0x00, 0x00, 0x00,
  0x00, 0x00, 0x00, 0x00, 0x00, 0x00, 0x00, 0x00, 0x00, 0x00, 0x00, 0x00,
  0x00, 0x00, 0x00, 0x00, 0x00, 0x00, 0x00, 0x00, 0x00, 0x00, 0x00, 0x00,
  0x00, 0x00, 0x00, 0x00, 0x00, 0x00, 0x00, 0x00, 0x00, 0x00, 0x00, 0x00,
  0x00, 0x00, 0x00, 0x00, 0x00, 0x00, 0x00, 0x00, 0x00, 0x00, 0x00, 0x00,
  0x00, 0x00, 0x00, 0x00, 0x00, 0x00, 0x00, 0x00, 0x00, 0x00, 0x00, 0x00,
  0x00, 0x00, 0x00, 0x00, 0x00, 0x00, 0x00, 0x00, 0x00, 0x00, 0x00, 0x00,
  0x00, 0x00, 0x00, 0x00, 0x00, 0x00, 0x00, 0x00, 0x00, 0x00, 0x00, 0x00,
  0x00, 0x00, 0x00, 0x00, 0x20, 0x00, 0x00, 0x00, 0x50, 0x36, 0x3f, 0x3b,
  0xcb, 0x8a, 0x3e, 0x3b, 0xba, 0xbe, 0x49, 0x3b, 0x6d, 0x18, 0x51, 0x3b,
  0x0b, 0x67, 0x47, 0x3b, 0x86, 0xf6, 0x43, 0x3b, 0x63, 0x23, 0x41, 0x3b,
  0x71, 0x53, 0x17, 0x3b, 0x76, 0xf4, 0x34, 0x3b, 0x5a, 0x37, 0x3e, 0x3b,
  0x9e, 0x3f, 0x22, 0x3b, 0xcd, 0x3e, 0x1e, 0x3b, 0xeb, 0x01, 0x27, 0x3b,
  0x7c, 0xac, 0x2c, 0x3b, 0xf2, 0xc3, 0x2b, 0x3b, 0x71, 0x39, 0x3d, 0x3b,
  0x2d, 0x59, 0x2c, 0x3b, 0x55, 0x1e, 0x51, 0x3b, 0x19, 0x0c, 0x3b, 0x3b,
  0xa1, 0x18, 0x2d, 0x3b, 0x43, 0x05, 0x14, 0x3b, 0x8d, 0xb0, 0x30, 0x3b,
  0x45, 0xef, 0x67, 0x3b, 0x13, 0x01, 0x31, 0x3b, 0x8a, 0x4a, 0x4e, 0x3b,
  0xe3, 0xf9, 0x29, 0x3b, 0xea, 0x38, 0x3c, 0x3b, 0x0c, 0x53, 0x16, 0x3b,
  0x14, 0xe1, 0x1f, 0x3b, 0x7a, 0xcc, 0x2d, 0x3b, 0xcb, 0xb9, 0x55, 0x3b,
  0xb8, 0x51, 0x0c, 0x3b, 0x12, 0x00, 0x00, 0x00, 0x74, 0x66, 0x6c, 0x2e,
  0x70, 0x73, 0x65, 0x75, 0x64, 0x6f, 0x5f, 0x71, 0x63, 0x6f, 0x6e, 0x73,
  0x74, 0x31, 0x00, 0x00, 0x02, 0x00, 0x00, 0x00, 0x20, 0x00, 0x00, 0x00,
  0x10, 0x00, 0x00, 0x00, 0xba, 0xfd, 0xff, 0xff, 0x00, 0x00, 0x00, 0x01,
  0x14, 0x00, 0x00, 0x00, 0xa4, 0x01, 0x00, 0x00, 0x05, 0x00, 0x00, 0x00,
  0x00, 0x00, 0x00, 0x02, 0xb0, 0x01, 0x00, 0x00, 0x34, 0xfd, 0xff, 0xff,
  0x08, 0x00, 0x00, 0x00, 0x08, 0x01, 0x00, 0x00, 0x20, 0x00, 0x00, 0x00,
  0x00, 0x00, 0x00, 0x00, 0x00, 0x00, 0x00, 0x00, 0x00, 0x00, 0x00, 0x00,
  0x00, 0x00, 0x00, 0x00, 0x00, 0x00, 0x00, 0x00, 0x00, 0x00, 0x00, 0x00,
  0x00, 0x00, 0x00, 0x00, 0x00, 0x00, 0x00, 0x00, 0x00, 0x00, 0x00, 0x00,
  0x00, 0x00, 0x00, 0x00, 0x00, 0x00, 0x00, 0x00, 0x00, 0x00, 0x00, 0x00,
  0x00, 0x00, 0x00, 0x00, 0x00, 0x00, 0x00, 0x00, 0x00, 0x00, 0x00, 0x00,
  0x00, 0x00, 0x00, 0x00, 0x00, 0x00, 0x00, 0x00, 0x00, 0x00, 0x00, 0x00,
  0x00, 0x00, 0x00, 0x00, 0x00, 0x00, 0x00, 0x00, 0x00, 0x00, 0x00, 0x00,
  0x00, 0x00, 0x00, 0x00, 0x00, 0x00, 0x00, 0x00, 0x00, 0x00, 0x00, 0x00,
  0x00, 0x00, 0x00, 0x00, 0x00, 0x00, 0x00, 0x00, 0x00, 0x00, 0x00, 0x00,
  0x00, 0x00, 0x00, 0x00, 0x00, 0x00, 0x00, 0x00, 0x00, 0x00, 0x00, 0x00,
  0x00, 0x00, 0x00, 0x00, 0x00, 0x00, 0x00, 0x00, 0x00, 0x00, 0x00, 0x00,
  0x00, 0x00, 0x00, 0x00, 0x00, 0x00, 0x00, 0x00, 0x00, 0x00, 0x00, 0x00,
  0x00, 0x00, 0x00, 0x00, 0x00, 0x00, 0x00, 0x00, 0x00, 0x00, 0x00, 0x00,
  0x00, 0x00, 0x00, 0x00, 0x00, 0x00, 0x00, 0x00, 0x00, 0x00, 0x00, 0x00,
  0x00, 0x00, 0x00, 0x00, 0x00, 0x00, 0x00, 0x00, 0x00, 0x00, 0x00, 0x00,
  0x00, 0x00, 0x00, 0x00, 0x00, 0x00, 0x00, 0x00, 0x00, 0x00, 0x00, 0x00,
  0x00, 0x00, 0x00, 0x00, 0x00, 0x00, 0x00, 0x00, 0x00, 0x00, 0x00, 0x00,
  0x00, 0x00, 0x00, 0x00, 0x00, 0x00, 0x00, 0x00, 0x00, 0x00, 0x00, 0x00,
  0x00, 0x00, 0x00, 0x00, 0x00, 0x00, 0x00, 0x00, 0x00, 0x00, 0x00, 0x00,
  0x00, 0x00, 0x00, 0x00, 0x00, 0x00, 0x00, 0x00, 0x00, 0x00, 0x00, 0x00,
  0x00, 0x00, 0x00, 0x00, 0x00, 0x00, 0x00, 0x00, 0x00, 0x00, 0x00, 0x00,
  0x00, 0x00, 0x00, 0x00, 0x20, 0x00, 0x00, 0x00, 0xfd, 0x1d, 0x81, 0x37,
  0x2b, 0xaa, 0x80, 0x37, 0xc2, 0x3a, 0x88, 0x37, 0x63, 0x31, 0x8d, 0x37,
  0xd1, 0xa5, 0x86, 0x37, 0x3e, 0x53, 0x84, 0x37, 0xf0, 0x6a, 0x82, 0x37,
  0x13, 0x5e, 0x4c, 0x37, 0xbb, 0x61, 0x74, 0x37, 0xd3, 0x71, 0x80, 0x37,
  0x57, 0x1e, 0x5b, 0x37, 0x50, 0xb6, 0x55, 0x37, 0xac, 0x8b, 0x61, 0x37,
  0xad, 0x32, 0x69, 0x37, 0xa1, 0xf8, 0x67, 0x37, 0xbd, 0x8c, 0x7f, 0x37,
  0x2b, 0xc2, 0x68, 0x37, 0x60, 0x35, 0x8d, 0x37, 0x0a, 0x9c, 0x7c, 0x37,
  0xba, 0xc4, 0x69, 0x37, 0x4c, 0xe7, 0x47, 0x37, 0x18, 0x9f, 0x6e, 0x37,
  0x80, 0x9d, 0x9c, 0x37, 0xd7, 0x0b, 0x6f, 0x37, 0xa1, 0x4c, 0x8b, 0x37,
  0x04, 0x8e, 0x65, 0x37, 0x4b, 0x32, 0x7e, 0x37, 0xcf, 0x03, 0x4b, 0x37,
  0x34, 0xeb, 0x57, 0x37, 0x9d, 0xb7, 0x6a, 0x37, 0xd0, 0x51, 0x90, 0x37,
  0xb4, 0x80, 0x3d, 0x37, 0x11, 0x00, 0x00, 0x00, 0x74, 0x66, 0x6c, 0x2e,
  0x70, 0x73, 0x65, 0x75, 0x64, 0x6f, 0x5f, 0x71, 0x63, 0x6f, 0x6e, 0x73,
  0x74, 0x00, 0x00, 0x00, 0x01, 0x00, 0x00, 0x00, 0x20, 0x00, 0x00, 0x00,
  0x8a, 0xff, 0xff, 0xff, 0x00, 0x00, 0x00, 0x01, 0x14, 0x00, 0x00, 0x00,
  0x14, 0x00, 0x00, 0x00, 0x04, 0x00, 0x00, 0x00, 0x00, 0x00, 0x00, 0x02,
  0x1c, 0x00, 0x00, 0x00, 0x74, 0xff, 0xff, 0xff, 0x0f, 0x00, 0x00, 0x00,
  0x61, 0x72, 0x69, 0x74, 0x68, 0x2e, 0x63, 0x6f, 0x6e, 0x73, 0x74, 0x61,
  0x6e, 0x74, 0x32, 0x00, 0x00, 0x00, 0x00, 0x00, 0xc2, 0xff, 0xff, 0xff,
  0x00, 0x00, 0x00, 0x01, 0x14, 0x00, 0x00, 0x00, 0x14, 0x00, 0x00, 0x00,
  0x03, 0x00, 0x00, 0x00, 0x00, 0x00, 0x00, 0x02, 0x1c, 0x00, 0x00, 0x00,
  0xac, 0xff, 0xff, 0xff, 0x0f, 0x00, 0x00, 0x00, 0x61, 0x72, 0x69, 0x74,
  0x68, 0x2e, 0x63, 0x6f, 0x6e, 0x73, 0x74, 0x61, 0x6e, 0x74, 0x31, 0x00,
  0x01, 0x00, 0x00, 0x00, 0x01, 0x00, 0x00, 0x00, 0x00, 0x00, 0x16, 0x00,
  0x1c, 0x00, 0x18, 0x00, 0x17, 0x00, 0x10, 0x00, 0x0c, 0x00, 0x08, 0x00,
  0x00, 0x00, 0x00, 0x00, 0x00, 0x00, 0x07, 0x00, 0x16, 0x00, 0x00, 0x00,
  0x00, 0x00, 0x00, 0x01, 0x18, 0x00, 0x00, 0x00, 0x18, 0x00, 0x00, 0x00,
  0x02, 0x00, 0x00, 0x00, 0x00, 0x00, 0x00, 0x02, 0x20, 0x00, 0x00, 0x00,
  0x04, 0x00, 0x04, 0x00, 0x04, 0x00, 0x00, 0x00, 0x0e, 0x00, 0x00, 0x00,
  0x61, 0x72, 0x69, 0x74, 0x68, 0x2e, 0x63, 0x6f, 0x6e, 0x73, 0x74, 0x61,
  0x6e, 0x74, 0x00, 0x00, 0x01, 0x00, 0x00, 0x00, 0x01, 0x00, 0x00, 0x00,
  0x00, 0x00, 0x16, 0x00, 0x20, 0x00, 0x1c, 0x00, 0x1b, 0x00, 0x14, 0x00,
  0x10, 0x00, 0x0c, 0x00, 0x00, 0x00, 0x00, 0x00, 0x08, 0x00, 0x07, 0x00,
  0x16, 0x00, 0x00, 0x00, 0x00, 0x00, 0x00, 0x01, 0x18, 0x00, 0x00, 0x00,
  0x34, 0x00, 0x00, 0x00, 0x50, 0x00, 0x00, 0x00, 0x01, 0x00, 0x00, 0x00,
  0x00, 0x00, 0x00, 0x09, 0x68, 0x00, 0x00, 0x00, 0x04, 0x00, 0x00, 0x00,
  0xff, 0xff, 0xff, 0xff, 0x12, 0x00, 0x00, 0x00, 0x28, 0x00, 0x00, 0x00,
  0x01, 0x00, 0x00, 0x00, 0x0c, 0x00, 0x0c, 0x00, 0x00, 0x00, 0x00, 0x00,
  0x08, 0x00, 0x04, 0x00, 0x0c, 0x00, 0x00, 0x00, 0x08, 0x00, 0x00, 0x00,
  0x10, 0x00, 0x00, 0x00, 0x01, 0x00, 0x00, 0x00, 0x4a, 0x00, 0x00, 0x00,
  0x00, 0x00, 0x00, 0x00, 0x01, 0x00, 0x00, 0x00, 0xc5, 0xb4, 0xca, 0x3e,
  0x1e, 0x00, 0x00, 0x00, 0x73, 0x65, 0x72, 0x76, 0x69, 0x6e, 0x67, 0x5f,
  0x64, 0x65, 0x66, 0x61, 0x75, 0x6c, 0x74, 0x5f, 0x6c, 0x6f, 0x67, 0x6d,
  0x65, 0x6c, 0x5f, 0x69, 0x6e, 0x70, 0x75, 0x74, 0x3a, 0x30, 0x00, 0x00,
  0x04, 0x00, 0x00, 0x00, 0x01, 0x00, 0x00, 0x00, 0x12, 0x00, 0x00, 0x00,
  0x28, 0x00, 0x00, 0x00, 0x01, 0x00, 0x00, 0x00, 0x09, 0x00, 0x00, 0x00,
  0xac, 0x00, 0x00, 0x00, 0x8c, 0x00, 0x00, 0x00, 0x78, 0x00, 0x00, 0x00,
  0x64, 0x00, 0x00, 0x00, 0x54, 0x00, 0x00, 0x00, 0x38, 0x00, 0x00, 0x00,
  0x28, 0x00, 0x00, 0x00, 0x18, 0x00, 0x00, 0x00, 0x04, 0x00, 0x00, 0x00,
  0x84, 0xff, 0xff, 0xff, 0x09, 0x00, 0x00, 0x00, 0x04, 0x00, 0x00, 0x00,
  0x00, 0x00, 0x00, 0x09, 0xdc, 0xff, 0xff, 0xff, 0x16, 0x00, 0x00, 0x00,
  0x00, 0x00, 0x00, 0x16, 0xe8, 0xff, 0xff, 0xff, 0x53, 0x00, 0x00, 0x00,
  0x00, 0x00, 0x00, 0x53, 0xf4, 0xff, 0xff, 0xff, 0x2d, 0x00, 0x00, 0x00,
  0x00, 0x00, 0x00, 0x2d, 0x0c, 0x00, 0x0c, 0x00, 0x0b, 0x00, 0x00, 0x00,
  0x00, 0x00, 0x04, 0x00, 0x0c, 0x00, 0x00, 0x00, 0x4d, 0x00, 0x00, 0x00,
  0x00, 0x00, 0x00, 0x4d, 0xd0, 0xff, 0xff, 0xff, 0x01, 0x00, 0x00, 0x00,
  0x02, 0x00, 0x00, 0x00, 0x00, 0x00, 0x00, 0x01, 0xe0, 0xff, 0xff, 0xff,
  0x11, 0x00, 0x00, 0x00, 0x02, 0x00, 0x00, 0x00, 0x00, 0x00, 0x00, 0x11,
  0xf0, 0xff, 0xff, 0xff, 0x04, 0x00, 0x00, 0x00, 0x03, 0x00, 0x00, 0x00,
  0x00, 0x00, 0x00, 0x04, 0x0c, 0x00, 0x10, 0x00, 0x0f, 0x00, 0x00, 0x00,
  0x08, 0x00, 0x04, 0x00, 0x0c, 0x00, 0x00, 0x00, 0x03, 0x00, 0x00, 0x00,
  0x03, 0x00, 0x00, 0x00, 0x00, 0x00, 0x00, 0x03
};
unsigned int embed_model_int8_tflite_len = 11552;
